<pad>	0
<s>	0
</s>	0
<unk>	0
<newline>	0
<tab>	0
<url>	0
<email>	0
▁п	-0
ст	-1
▁в	-2
но	-3
▁с	-4
ни	-5
ра	-6
на	-7
▁и	-8
то	-9
ко	-10
ро	-11
▁о	-12
ре	-13
го	-14
не	-15
ли	-16
▁по	-17
ны	-18
▁д	-19
ль	-20
ва	-21
те	-22
ка	-23
ри	-24
ле	-25
▁на	-26
▁м	-27
во	-28
та	-29
ло	-30
ла	-31
ет	-32
за	-33
ен	-34
▁б	-35
ки	-36
▁не	-37
ть	-38
да	-39
▁ч	-40
ти	-41
ся	-42
де	-43
▁у	-44
ми	-45
ер	-46
▁ко	-47
ци	-48
ви	-49
ем	-50
ру	-51
▁за	-52
че	-53
▁со	-54
ста	-55
ди	-56
ния	-57
▁про	-58
же	-59
ля	-60
▁э	-61
▁ра	-62
▁а	-63
▁к	-64
ве	-65
по	-66
сти	-67
▁В	-68
ма	-69
ско	-70
▁об	-71
до	-72
мо	-73
ме	-74
▁от	-75
сто	-76
▁при	-77
ние	-78
▁что	-79
▁до	-80
си	-81
▁П	-82
▁«	-83
бо	-84
▁е	-85
▁ка	-86
▁то	-87
▁—	-88
ча	-89
▁С	-90
▁го	-91
▁во	-92
чи	-93
хо	-94
▁г	-95
ных	-96
ры	-97
ще	-98
ски	-99
ду	-100
▁бы	-101
ше	-102
ной	-103
▁пре	-104
тель	-105
ного	-106
со	-107
▁из	-108
сь	-109
▁вы	-110
се	-111
ну	-112
▁т	-113
▁К	-114
ку	-115
▁мо	-116
▁(	-117
▁ре	-118
ги	-119
жи	-120
▁Н	-121
ств	-122
лу	-123
га	-124
сть	-125
ные	-126
▁ф	-127
▁Т	-128
▁это	-129
ши	-130
▁та	-131
вы	-132
ют	-133
щи	-134
▁те	-135
▁А	-136
▁М	-137
па	-138
▁Р	-139
ере	-140
▁1	-141
ту	-142
му	-143
са	-144
▁Д	-145
▁О	-146
зо	-147
▁де	-148
▁но	-149
зи	-150
ный	-151
лю	-152
ется	-153
▁раз	-154
ня	-155
▁ме	-156
ор	-157
ции	-158
▁кото	-159
▁Г	-160
ты	-161
▁И	-162
пе	-163
▁я	-164
мен	-165
ство	-166
пи	-167
▁з	-168
це	-169
ря	-170
жа	-171
сси	-172
▁2	-173
▁ст	-174
сле	-175
0%	-176
▁ста	-177
▁как	-178
▁ли	-179
▁ма	-180
вле	-181
су	-182
▁под	-183
нии	-184
▁да	-185
▁Б	-186
▁бо	-187
ным	-188
ствен	-189
▁сво	-190
зы	-191
ской	-192
▁По	-193
ров	-194
об	-195
ей	-196
▁ис	-197
мы	-198
▁для	-199
вер	-200
▁са	-201
ства	-202
ности	-203
би	-204
ное	-205
вать	-206
▁все	-207
▁пред	-208
▁ни	-209
он	-210
..	-211
▁пере	-212
чески	-213
▁ми	-214
▁ин	-215
ке	-216
ная	-217
▁ве	-218
▁су	-219
▁так	-220
▁си	-221
ном	-222
бы	-223
▁бу	-224
▁се	-225
про	-226
ска	-227
ность	-228
ша	-229
ний	-230
00	-231
▁пра	-232
ды	-233
аль	-234
▁кон	-235
нов	-236
▁которы	-237
пу	-238
ющи	-239
▁его	-240
▁рас	-241
▁па	-242
вля	-243
гра	-244
ков	-245
▁же	-246
ur	-247
ht	-248
▁ро	-249
лько	-250
▁Ро	-251
тов	-252
ца	-253
▁бе	-254
каза	-255
ха	-256
рова	-257
ского	-258
ема	-259
▁или	-260
бе	-261
тся	-262
вет	-263
ба	-264
зу	-265
▁воз	-266
▁Ф	-267
тив	-268
▁хо	-269
or	-270
ща	-271
ран	-272
гда	-273
▁жи	-274
ек	-275
▁На	-276
ень	-277
жно	-278
▁,	-279
рия	-280
▁Е	-281
лся	-282
фи	-283
▁Л	-284
стви	-285
мя	-286
//	-287
сту	-288
пре	-289
гу	-290
▁вре	-291
лы	-292
▁ви	-293
▁-	-294
tp	-295
ак	-296
in	-297
://	-298
http	-299
▁дру	-300
▁он	-301
ан	-302
ться	-303
▁ча	-304
▁сто	-305
».	-306
»,	-307
▁од	-308
▁Росси	-309
▁Э	-310
▁ле	-311
ходи	-312
ву	-313
сли	-314
кой	-315
▁У	-316
ru	-317
ас	-318
▁Тема	-319
зна	-320
ную	-321
вто	-322
пра	-323
ются	-324
стоя	-325
).	-326
▁дол	-327
мер	-328
▁че	-329
ция	-330
вя	-331
▁года	-332
вой	-333
▁Да	-334
▁ру	-335
нима	-336
нию	-337
url	-338
▁лю	-339
дер	-340
дет	-341
▁url	-342
▁З	-343
01	-344
лей	-345
ден	-346
▁Го	-347
жда	-348
▁фи	-349
тре	-350
тер	-351
ству	-352
▁зна	-353
лись	-354
ными	-355
▁ком	-356
▁рабо	-357
▁после	-358
жет	-359
жен	-360
от	-361
ром	-362
le	-363
нием	-364
том	-365
логи	-366
кра	-367
▁обра	-368
▁"	-369
:2	-370
из	-371
ком	-372
▁19	-373
▁их	-374
вания	-375
▁.	-376
▁ос	-377
лось	-378
▁пер	-379
лове	-380
▁боль	-381
спо	-382
▁слу	-383
ему	-384
▁только	-385
ред	-386
▁было	-387
жде	-388
▁Ч	-389
сы	-390
чно	-391
),	-392
ww	-393
дар	-394
▁–	-395
▁ор	-396
вши	-397
ский	-398
бу	-399
стро	-400
▁стра	-401
стра	-402
пы	-403
тра	-404
она	-405
цен	-406
...	-407
▁Х	-408
1%	-409
▁уже	-410
▁Но	-411
зыва	-412
▁х	-413
ik	-414
дя	-415
▁ку	-416
▁вс	-417
сте	-418
лее	-419
▁пу	-420
лек	-421
▁чи	-422
ник	-423
▁был	-424
пол	-425
▁сло	-426
лен	-427
пер	-428
▁пи	-429
ар	-430
при	-431
▁челове	-432
▁полу	-433
гла	-434
ск	-435
▁объ	-436
▁мы	-437
▁ди	-438
ew	-439
▁Ко	-440
▁3	-441
нее	-442
Кор	-443
ch	-444
▁также	-445
ских	-446
асКор	-447
бли	-448
ЧасКор	-449
ника	-450
▁му	-451
зова	-452
мет	-453
▁ва	-454
тельно	-455
спе	-456
▁время	-457
ews	-458
сло	-459
▁ш	-460
▁орга	-461
wik	-462
▁будет	-463
тя	-464
ней	-465
▁гра	-466
▁том	-467
дера	-468
лась	-469
▁году	-470
▁само	-471
ён	-472
рии	-473
▁Год	-474
зда	-475
▁пла	-476
ti	-477
▁гла	-478
фор	-479
руп	-480
ге	-481
▁Я	-482
теля	-483
цион	-484
ин	-485
веде	-486
вых	-487
циаль	-488
▁может	-489
▁эти	-490
ская	-491
▁име	-492
ики	-493
▁тре	-494
дь	-495
▁це	-496
▁Дата	-497
ате	-498
три	-499
род	-500
юще	-501
жду	-502
▁спо	-503
клю	-504
▁которые	-505
▁Мо	-506
едера	-507
вые	-508
as	-509
▁Не	-510
рой	-511
кры	-512
1%8	-513
кон	-514
▁оста	-515
судар	-516
соб	-517
▁пе	-518
шь	-519
▁этом	-520
дин	-521
тия	-522
дов	-523
▁ак	-524
телей	-525
коно	-526
▁они	-527
▁предста	-528
er	-529
смо	-530
цы	-531
емы	-532
▁если	-533
▁200	-534
▁обще	-535
льно	-536
хи	-537
▁того	-538
вори	-539
▁При	-540
рен	-541
▁Со	-542
▁быть	-543
▁эк	-544
▁За	-545
дей	-546
ёт	-547
чита	-548
кан	-549
Вики	-550
▁свя	-551
▁нача	-552
гория	-553
▁явля	-554
▁други	-555
▁•	-556
al	-557
поль	-558
ью	-559
▁свои	-560
▁Во	-561
▁Ка	-562
атегория	-563
ВикиК	-564
ВикиКатегория	-565
нных	-566
ев	-567
преде	-568
▁есть	-569
ления	-570
йской	-571
жу	-572
▁уча	-573
di	-574
▁были	-575
▁пол	-576
кто	-577
▁без	-578
жения	-579
нова	-580
шения	-581
мени	-582
сов	-583
▁сле	-584
org	-585
ol	-586
▁чтобы	-587
▁соб	-588
вод	-589
▁дей	-590
тически	-591
▁когда	-592
▁случа	-593
ску	-594
▁государ	-595
вого	-596
▁России	-597
води	-598
нд	-599
om	-600
▁4	-601
дом	-602
▁отно	-603
вно	-604
цию	-605
▁ты	-606
▁можно	-607
ческой	-608
▁ту	-609
бя	-610
втор	-611
de	-612
▁тех	-613
ких	-614
нения	-615
▁Это	-616
вый	-617
▁чем	-618
стве	-619
нь	-620
тери	-621
тро	-622
an	-623
▁созда	-624
ников	-625
▁более	-626
ющих	-627
ские	-628
▁вер	-629
▁жиз	-630
дела	-631
▁этого	-632
лов	-633
ском	-634
▁фор	-635
рти	-636
пла	-637
▁исполь	-638
вро	-639
нк	-640
ступ	-641
дова	-642
тому	-643
щё	-644
чень	-645
▁Федера	-646
сла	-647
▁ду	-648
▁ба	-649
▁она	-650
кла	-651
вления	-652
чен	-653
▁между	-654
▁прави	-655
нако	-656
▁возмо	-657
кие	-658
▁тем	-659
▁5	-660
сты	-661
яви	-662
тели	-663
вая	-664
ём	-665
▁была	-666
▁лет	-667
дно	-668
/0	-669
чения	-670
on	-671
▁Бо	-672
чение	-673
жение	-674
▁поло	-675
вест	-676
нные	-677
стре	-678
шение	-679
▁буду	-680
▁который	-681
▁поли	-682
ar	-683
шо	-684
▁стать	-685
▁даже	-686
рак	-687
бле	-688
▁сооб	-689
писа	-690
▁произ	-691
▁сист	-692
сс	-693
▁сов	-694
▁соот	-695
енно	-696
вает	-697
▁ки	-698
▁сторо	-699
емо	-700
вали	-701
али	-702
вал	-703
▁га	-704
кого	-705
▁исто	-706
▁ну	-707
зя	-708
▁всё	-709
▁соста	-710
▁органи	-711
www	-712
мента	-713
льных	-714
ющие	-715
нг	-716
▁Ма	-717
▁вопро	-718
зиден	-719
ций	-720
кономи	-721
льту	-722
▁Та	-723
лом	-724
мери	-725
▁очень	-726
рта	-727
▁где	-728
▁им	-729
гово	-730
ман	-731
▁То	-732
фе	-733
ask	-734
▁спе	-735
▁ещё	-736
▁опреде	-737
ео	-738
▁действи	-739
▁мне	-740
▁поз	-741
▁поч	-742
тере	-743
:201	-744
льта	-745
askor	-746
▁Автор	-747
chaskor	-748
зе	-749
еня	-750
▁гражда	-751
▁вла	-752
▁соответ	-753
лого	-754
ники	-755
▁росси	-756
стано	-757
▁авто	-758
менно	-759
▁говори	-760
ческого	-761
▁Ж	-762
▁тер	-763
грам	-764
лли	-765
▁Ми	-766
▁Са	-767
▁дела	-768
▁много	-769
льного	-770
▁разви	-771
li	-772
тно	-773
en	-774
ети	-775
▁201	-776
ское	-777
▁цен	-778
лия	-779
еди	-780
▁чу	-781
▁кни	-782
рт	-783
▁обо	-784
сно	-785
▁счита	-786
▁могу	-787
ходя	-788
ез	-789
▁кра	-790
торы	-791
▁Ш	-792
▁Российской	-793
обра	-794
нет	-795
▁которо	-796
щество	-797
держа	-798
тельства	-799
ким	-800
шей	-801
форма	-802
зульта	-803
▁сказа	-804
▁груп	-805
▁послед	-806
ческих	-807
▁Федерации	-808
▁Ра	-809
▁обла	-810
▁является	-811
циона	-812
▁меня	-813
▁себя	-814
▁долж	-815
рабо	-816
▁право	-817
▁компа	-818
слу	-819
лага	-820
ve	-821
личи	-822
льной	-823
ША	-824
ками	-825
▁прои	-826
▁каж	-827
▁помо	-828
▁S	-829
inews	-830
wikinews	-831
▁Про	-832
ряд	-833
ститу	-834
кре	-835
▁Как	-836
▁кри	-837
▁обе	-838
▁её	-839
▁поль	-840
ях	-841
▁проек	-842
▁тра	-843
▁сред	-844
st	-845
wiki	-846
▁просто	-847
ваться	-848
▁день	-849
▁результа	-850
ph	-851
бра	-852
▁возмож	-853
цо	-854
▁получи	-855
▁N	-856
▁Ре	-857
▁Од	-858
ro	-859
ление	-860
шу	-861
вым	-862
▁Ве	-863
▁Вы	-864
шего	-865
▁работа	-866
бой	-867
▁собствен	-868
дол	-869
ках	-870
чу	-871
тен	-872
зации	-873
▁дан	-874
чь	-875
цу	-876
▁них	-877
его	-878
▁неско	-879
▁нет	-880
ност	-881
▁ско	-882
рь	-883
нологи	-884
тельство	-885
▁ха	-886
▁необ	-887
нер	-888
▁ее	-889
рая	-890
▁следу	-891
чных	-892
▁всех	-893
▁програм	-894
▁проце	-895
▁слова	-896
кое	-897
влен	-898
лаго	-899
▁тру	-900
щения	-901
▁сдела	-902
news	-903
com	-904
▁совер	-905
▁усло	-906
вление	-907
tit	-908
▁всего	-909
▁приня	-910
▁Па	-911
нали	-912
:1	-913
oo	-914
тера	-915
▁Так	-916
▁которых	-917
▁вос	-918
▁каче	-919
▁этой	-920
луч	-921
ностью	-922
▁человек	-923
dex	-924
▁Ва	-925
▁этот	-926
вра	-927
ход	-928
ющий	-929
▁I	-930
▁M	-931
нение	-932
our	-933
▁США	-934
▁голо	-935
скую	-936
▁образо	-937
▁6	-938
▁интер	-939
▁фу	-940
▁могут	-941
index	-942
яс	-943
php	-944
▁C	-945
did	-946
рук	-947
вое	-948
ших	-949
▁ти	-950
пример	-951
oldid	-952
▁один	-953
▁G	-954
дня	-955
яза	-956
▁ок	-957
▁A	-958
title	-959
▁Моск	-960
ним	-961
ит	-962
▁нас	-963
доб	-964
бор	-965
▁7	-966
▁состоя	-967
▁Кон	-968
▁смо	-969
▁ар	-970
▁друго	-971
▁еще	-972
▁кто	-973
▁ю	-974
▁кор	-975
▁самы	-976
▁теле	-977
дели	-978
вается	-979
▁больше	-980
ссо	-981
re	-982
льные	-983
оне	-984
мина	-985
▁настоя	-986
стов	-987
▁зада	-988
бира	-989
▁наз	-990
▁чере	-991
▁два	-992
▁мно	-993
▁откры	-994
мерикан	-995
▁зем	-996
▁извест	-997
▁Ки	-998
публи	-999
▁ге	-1000
ван	-1001
сса	-1002
твер	-1003
нами	-1004
ровать	-1005
кая	-1006
пера	-1007
▁призна	-1008
шен	-1009
щая	-1010
▁неко	-1011
▁президен	-1012
▁россий	-1013
▁ему	-1014
бря	-1015
нан	-1016
тие	-1017
фо	-1018
смотре	-1019
▁информа	-1020
вание	-1021
▁зако	-1022
вить	-1023
▁сер	-1024
тки	-1025
▁Ме	-1026
▁пло	-1027
▁пробле	-1028
вор	-1029
казыва	-1030
▁ц	-1031
▁стро	-1032
ческие	-1033
реди	-1034
▁Ста	-1035
▁объек	-1036
▁согла	-1037
at	-1038
▁необходи	-1039
цев	-1040
▁Он	-1041
▁экономи	-1042
тор	-1043
▁ша	-1044
йте	-1045
▁Если	-1046
рав	-1047
▁Си	-1048
льный	-1049
▁мл	-1050
чной	-1051
▁глав	-1052
мент	-1053
▁T	-1054
ходит	-1055
▁дву	-1056
▁Ц	-1057
ждения	-1058
▁интере	-1059
йти	-1060
ному	-1061
0-	-1062
▁До	-1063
▁язы	-1064
▁жизни	-1065
▁Су	-1066
▁уве	-1067
воз	-1068
▁Ю	-1069
▁обяза	-1070
щу	-1071
▁ры	-1072
▁над	-1073
▁жен	-1074
▁услови	-1075
личе	-1076
▁других	-1077
▁ла	-1078
▁случае	-1079
чет	-1080
▁вне	-1081
ят	-1082
▁рус	-1083
час	-1084
▁сем	-1085
▁виде	-1086
имо	-1087
▁уров	-1088
ил	-1089
ющей	-1090
ским	-1091
▁Однако	-1092
▁будут	-1093
тий	-1094
▁ответ	-1095
нен	-1096
▁социаль	-1097
▁хоро	-1098
▁вз	-1099
прия	-1100
▁горо	-1101
▁8	-1102
▁поста	-1103
виси	-1104
част	-1105
нем	-1106
хра	-1107
▁оп	-1108
той	-1109
чина	-1110
него	-1111
▁вот	-1112
▁вой	-1113
▁чет	-1114
▁указа	-1115
них	-1116
▁ци	-1117
▁него	-1118
▁высо	-1119
▁поня	-1120
▁государствен	-1121
лет	-1122
тей	-1123
▁би	-1124
ья	-1125
ёр	-1126
вом	-1127
краи	-1128
пас	-1129
▁пос	-1130
▁через	-1131
▁времени	-1132
▁позво	-1133
ген	-1134
▁участ	-1135
ье	-1136
nal	-1137
чные	-1138
▁ад	-1139
ственно	-1140
вести	-1141
▁Ни	-1142
▁ло	-1143
▁кла	-1144
▁Алек	-1145
▁P	-1146
▁10	-1147
▁жу	-1148
▁основ	-1149
▁харак	-1150
▁Бе	-1151
▁свой	-1152
▁матери	-1153
стер	-1154
▁там	-1155
мини	-1156
▁нау	-1157
:200	-1158
▁иссле	-1159
ремен	-1160
▁эта	-1161
вают	-1162
ствует	-1163
▁Ку	-1164
чего	-1165
▁несколько	-1166
чем	-1167
рито	-1168
туа	-1169
сут	-1170
ейчас	-1171
ournal	-1172
▁благо	-1173
",	-1174
сом	-1175
▁част	-1176
▁место	-1177
им	-1178
нти	-1179
ством	-1180
▁граждан	-1181
▁вто	-1182
▁уда	-1183
▁три	-1184
▁части	-1185
/1	-1186
▁продол	-1187
▁которая	-1188
дель	-1189
ствие	-1190
рий	-1191
▁От	-1192
▁против	-1193
▁экс	-1194
тру	-1195
коло	-1196
▁филь	-1197
▁дея	-1198
▁пор	-1199
▁уч	-1200
▁луч	-1201
▁музы	-1202
▁чита	-1203
лез	-1204
▁9	-1205
кий	-1206
▁свобо	-1207
▁суще	-1208
▁Украи	-1209
▁перед	-1210
ведения	-1211
ov	-1212
щих	-1213
live	-1214
▁бра	-1215
journal	-1216
ческий	-1217
ya	-1218
над	-1219
рения	-1220
livejournal	-1221
▁человека	-1222
вший	-1223
▁вме	-1224
▁своей	-1225
фф	-1226
графи	-1227
тами	-1228
ml	-1229
руг	-1230
ссе	-1231
чки	-1232
▁оче	-1233
кти	-1234
▁мире	-1235
▁реги	-1236
▁дви	-1237
▁культу	-1238
▁показа	-1239
▁американ	-1240
▁себе	-1241
▁людей	-1242
▁устано	-1243
ёл	-1244
перь	-1245
▁ху	-1246
поло	-1247
2%	-1248
тиво	-1249
▁Пре	-1250
▁жур	-1251
▁обы	-1252
▁страны	-1253
тья	-1254
полни	-1255
▁напра	-1256
BE	-1257
▁которой	-1258
▁руко	-1259
▁называ	-1260
щение	-1261
▁ж	-1262
▁полити	-1263
рма	-1264
тан	-1265
▁часть	-1266
рует	-1267
▁»	-1268
гре	-1269
лин	-1270
▁B	-1271
грани	-1272
ступа	-1273
▁мест	-1274
▁образом	-1275
тельности	-1276
мой	-1277
▁Ин	-1278
рования	-1279
ять	-1280
▁После	-1281
▁этих	-1282
▁числе	-1283
html	-1284
▁пока	-1285
доста	-1286
этому	-1287
▁фак	-1288
▁свою	-1289
▁18	-1290
▁Из	-1291
▁лишь	-1292
лё	-1293
рован	-1294
▁именно	-1295
▁Ли	-1296
▁Что	-1297
▁Евро	-1298
▁разме	-1299
".	-1300
лем	-1301
нци	-1302
щен	-1303
▁Се	-1304
ющего	-1305
кус	-1306
шая	-1307
десь	-1308
▁Ба	-1309
ключа	-1310
ню	-1311
▁199	-1312
ствии	-1313
ствия	-1314
▁значи	-1315
it	-1316
▁способ	-1317
▁представи	-1318
▁поме	-1319
бер	-1320
шин	-1321
вета	-1322
ic	-1323
▁встре	-1324
бора	-1325
▁долла	-1326
фа	-1327
обще	-1328
▁хотя	-1329
▁работы	-1330
▁Все	-1331
рд	-1332
дек	-1333
тных	-1334
▁комп	-1335
гля	-1336
роме	-1337
▁обеспе	-1338
19	-1339
▁писа	-1340
ступи	-1341
▁террито	-1342
▁проис	-1343
▁особ	-1344
▁Гео	-1345
▁уче	-1346
▁коне	-1347
▁прош	-1348
▁заяви	-1349
вич	-1350
пло	-1351
▁фа	-1352
ческая	-1353
▁расска	-1354
he	-1355
спубли	-1356
▁количе	-1357
вед	-1358
раз	-1359
▁осу	-1360
▁иде	-1361
▁многи	-1362
▁должны	-1363
▁РФ	-1364
▁доро	-1365
5%	-1366
▁ри	-1367
вляет	-1368
▁Вла	-1369
▁Ви	-1370
▁финан	-1371
▁своих	-1372
▁изме	-1373
▁бли	-1374
▁гу	-1375
▁изда	-1376
нах	-1377
щем	-1378
▁доста	-1379
▁F	-1380
▁год	-1381
▁стороны	-1382
меча	-1383
▁физи	-1384
▁вну	-1385
▁требо	-1386
ляр	-1387
▁Пу	-1388
▁Ру	-1389
▁совет	-1390
▁кол	-1391
▁уни	-1392
▁некоторы	-1393
цией	-1394
▁руб	-1395
ществ	-1396
▁стал	-1397
▁пользова	-1398
нове	-1399
▁женщи	-1400
▁ги	-1401
▁прода	-1402
кт	-1403
▁потому	-1404
юд	-1405
вших	-1406
пусти	-1407
▁доку	-1408
▁сего	-1409
строй	-1410
▁двух	-1411
▁оказа	-1412
дра	-1413
▁Об	-1414
вую	-1415
виде	-1416
▁занима	-1417
Об	-1418
тур	-1419
▁Пер	-1420
▁находи	-1421
шие	-1422
▁15	-1423
▁тоже	-1424
▁ше	-1425
▁около	-1426
▁жа	-1427
льным	-1428
▁искус	-1429
es	-1430
лан	-1431
▁потре	-1432
▁элек	-1433
нить	-1434
▁власти	-1435
народ	-1436
▁пара	-1437
ждение	-1438
кова	-1439
▁тек	-1440
санд	-1441
▁сту	-1442
8%	-1443
щей	-1444
▁Ан	-1445
▁моло	-1446
▁ию	-1447
стей	-1448
чного	-1449
▁функ	-1450
тельных	-1451
▁сегодня	-1452
▁фо	-1453
▁Для	-1454
▁понима	-1455
рио	-1456
нови	-1457
щего	-1458
▁такой	-1459
▁современ	-1460
лий	-1461
▁сам	-1462
▁успе	-1463
▁которого	-1464
ющим	-1465
▁сти	-1466
кло	-1467
сков	-1468
▁сро	-1469
▁X	-1470
держи	-1471
ями	-1472
▁зо	-1473
мости	-1474
:0	-1475
▁люди	-1476
▁ситуа	-1477
тельной	-1478
зд	-1479
гро	-1480
▁сте	-1481
_%	-1482
рей	-1483
▁тыся	-1484
▁предло	-1485
▁связа	-1486
▁сейчас	-1487
мов	-1488
▁Де	-1489
▁пы	-1490
труд	-1491
▁зая	-1492
▁нео	-1493
▁дости	-1494
ян	-1495
▁Ар	-1496
▁евро	-1497
▁конце	-1498
▁переда	-1499
ффек	-1500
ностран	-1501
▁получа	-1502
▁противо	-1503
дой	-1504
тика	-1505
чный	-1506
▁неза	-1507
хов	-1508
воря	-1509
полне	-1510
▁н	-1511
тар	-1512
▁преду	-1513
▁гру	-1514
шли	-1515
рово	-1516
▁одно	-1517
▁офи	-1518
▁мог	-1519
блю	-1520
▁Лу	-1521
тить	-1522
▁пар	-1523
pe	-1524
▁аб	-1525
стан	-1526
рави	-1527
▁ника	-1528
ктор	-1529
разу	-1530
▁разрабо	-1531
ra	-1532
нологии	-1533
▁принима	-1534
▁долларов	-1535
ток	-1536
▁деся	-1537
▁Те	-1538
сколь	-1539
▁мира	-1540
▁основа	-1541
▁использова	-1542
ху	-1543
рот	-1544
▁наи	-1545
шим	-1546
▁собой	-1547
si	-1548
▁надо	-1549
▁преступ	-1550
зма	-1551
▁одной	-1552
▁Ну	-1553
▁мето	-1554
gle	-1555
ете	-1556
▁упо	-1557
▁вопрос	-1558
▁нам	-1559
▁обществен	-1560
▁чув	-1561
▁выра	-1562
▁другие	-1563
▁содержа	-1564
▁Александ	-1565
чер	-1566
▁20	-1567
▁сме	-1568
дии	-1569
пита	-1570
▁тот	-1571
▁почти	-1572
сем	-1573
тора	-1574
тах	-1575
▁учи	-1576
▁Влади	-1577
▁связи	-1578
▁области	-1579
тии	-1580
▁места	-1581
▁12	-1582
▁упра	-1583
▁милли	-1584
▁иностран	-1585
us	-1586
▁нару	-1587
▁отде	-1588
▁сказал	-1589
седа	-1590
▁должен	-1591
там	-1592
вшие	-1593
et	-1594
▁Мы	-1595
▁всегда	-1596
▁сы	-1597
▁шко	-1598
:2010	-1599
▁имеет	-1600
тельные	-1601
▁важ	-1602
▁стран	-1603
▁однако	-1604
▁организа	-1605
Ро	-1606
так	-1607
ческое	-1608
▁ограни	-1609
▁участи	-1610
▁отноше	-1611
▁ши	-1612
кую	-1613
▁кино	-1614
▁либо	-1615
▁потом	-1616
▁своего	-1617
▁сообща	-1618
ющая	-1619
▁кре	-1620
нес	-1621
▁ней	-1622
▁нем	-1623
▁права	-1624
▁разли	-1625
▁сотруд	-1626
▁использу	-1627
▁любо	-1628
▁2.	-1629
частник	-1630
тин	-1631
▁дело	-1632
▁реаль	-1633
▁осуществ	-1634
▁режи	-1635
▁роди	-1636
▁тран	-1637
рон	-1638
▁1.	-1639
кам	-1640
лии	-1641
лиги	-1642
▁пря	-1643
oogle	-1644
▁ничего	-1645
▁D	-1646
зов	-1647
туры	-1648
▁суб	-1649
▁нужно	-1650
скольку	-1651
Участник	-1652
еры	-1653
шки	-1654
▁осо	-1655
▁компании	-1656
il	-1657
▁круп	-1658
▁прекра	-1659
▁теперь	-1660
▁насе	-1661
▁стан	-1662
▁решения	-1663
вил	-1664
▁закон	-1665
▁причи	-1666
нок	-1667
шее	-1668
▁това	-1669
▁млн	-1670
ружи	-1671
▁глу	-1672
▁непо	-1673
щее	-1674
щий	-1675
▁здесь	-1676
▁исклю	-1677
ницы	-1678
▁Ива	-1679
▁спи	-1680
▁литера	-1681
тря	-1682
скому	-1683
нав	-1684
▁суд	-1685
▁защи	-1686
ce	-1687
▁Ле	-1688
▁меся	-1689
▁какой	-1690
▁например	-1691
тура	-1692
▁дома	-1693
▁живо	-1694
▁написа	-1695
▁расс	-1696
▁перио	-1697
▁бюд	-1698
▁менее	-1699
мом	-1700
▁пример	-1701
щие	-1702
пуска	-1703
▁решение	-1704
▁принци	-1705
или	-1706
▁утвер	-1707
▁Владими	-1708
▁Конститу	-1709
нача	-1710
▁лица	-1711
Общество	-1712
▁проду	-1713
▁качестве	-1714
▁вся	-1715
▁смер	-1716
ваются	-1717
0%9	-1718
зии	-1719
пад	-1720
боль	-1721
▁вели	-1722
▁поряд	-1723
▁статьи	-1724
тай	-1725
▁диа	-1726
▁попу	-1727
кси	-1728
▁Бу	-1729
▁Ту	-1730
нера	-1731
того	-1732
▁вообще	-1733
ить	-1734
нуть	-1735
рую	-1736
стри	-1737
▁Ча	-1738
ляет	-1739
▁Украины	-1740
циали	-1741
▁даль	-1742
▁:	-1743
ший	-1744
▁очеред	-1745
жида	-1746
▁пои	-1747
▁ря	-1748
вала	-1749
▁рай	-1750
▁безо	-1751
▁заня	-1752
▁чего	-1753
▁распро	-1754
нец	-1755
▁системы	-1756
▁Мар	-1757
▁тор	-1758
телем	-1759
▁конф	-1760
▁смы	-1761
▁прав	-1762
▁опера	-1763
▁законо	-1764
диви	-1765
▁вза	-1766
▁мини	-1767
▁начина	-1768
емых	-1769
▁пунк	-1770
▁одного	-1771
нут	-1772
▁публи	-1773
▁большо	-1774
▁соответству	-1775
▁ска	-1776
BD	-1777
▁дет	-1778
▁специаль	-1779
нам	-1780
дования	-1781
▁R	-1782
чай	-1783
▁тя	-1784
▁внима	-1785
ям	-1786
▁L	-1787
нно	-1788
▁эффек	-1789
▁другой	-1790
▁налого	-1791
министра	-1792
нул	-1793
став	-1794
▁пози	-1795
▁энер	-1796
зм	-1797
бур	-1798
гов	-1799
матри	-1800
▁Google	-1801
лки	-1802
▁ради	-1803
ерт	-1804
пей	-1805
стран	-1806
▁игра	-1807
▁запре	-1808
тр	-1809
лён	-1810
▁сла	-1811
▁тради	-1812
▁производ	-1813
▁сим	-1814
▁ог	-1815
▁воен	-1816
▁реши	-1817
сур	-1818
▁выше	-1819
▁жизнь	-1820
▁норма	-1821
вили	-1822
▁бор	-1823
▁еди	-1824
▁использо	-1825
▁Вот	-1826
▁приме	-1827
▁группы	-1828
▁относи	-1829
▁продолжа	-1830
слав	-1831
▁сре	-1832
▁догово	-1833
▁электро	-1834
▁государства	-1835
▁Га	-1836
ссии	-1837
ot	-1838
ница	-1839
риан	-1840
▁пода	-1841
▁национа	-1842
пом	-1843
тельный	-1844
▁рублей	-1845
▁материа	-1846
струк	-1847
▁тогда	-1848
стой	-1849
ристи	-1850
▁дума	-1851
▁подо	-1852
▁исследова	-1853
щую	-1854
ган	-1855
▁неу	-1856
▁худо	-1857
▁подоб	-1858
гру	-1859
дёт	-1860
▁струк	-1861
дить	-1862
ётся	-1863
▁этим	-1864
▁отмет	-1865
▁W	-1866
жении	-1867
▁помощ	-1868
▁реали	-1869
▁таких	-1870
▁экспер	-1871
чка	-1872
▁конечно	-1873
▁11	-1874
▁развития	-1875
▁две	-1876
▁--	-1877
▁дня	-1878
рев	-1879
рию	-1880
льное	-1881
▁No	-1882
▁ЖЖ	-1883
меня	-1884
По	-1885
полня	-1886
▁стре	-1887
▁объяс	-1888
is	-1889
_2	-1890
рам	-1891
шенно	-1892
▁весь	-1893
el	-1894
бре	-1895
жных	-1896
▁спа	-1897
льная	-1898
▁миро	-1899
dia	-1900
чить	-1901
▁действия	-1902
еха	-1903
▁указан	-1904
.,	-1905
▁теа	-1906
вшего	-1907
▁парти	-1908
Ку	-1909
что	-1910
шем	-1911
▁меди	-1912
▁конку	-1913
▁религи	-1914
▁которое	-1915
тельность	-1916
кс	-1917
гна	-1918
хва	-1919
▁Пред	-1920
оз	-1921
онов	-1922
▁отра	-1923
▁зависи	-1924
▁предпо	-1925
циа	-1926
ерма	-1927
▁удо	-1928
▁четы	-1929
▁отсут	-1930
▁поскольку	-1931
мена	-1932
▁Вер	-1933
▁наде	-1934
кро	-1935
ющее	-1936
▁пси	-1937
▁эту	-1938
тября	-1939
▁федера	-1940
am	-1941
▁Му	-1942
▁побе	-1943
▁предоста	-1944
тем	-1945
жить	-1946
▁тео	-1947
▁реше	-1948
▁тому	-1949
▁города	-1950
▁должно	-1951
▁Дж	-1952
▁уста	-1953
точ	-1954
▁Они	-1955
щим	-1956
▁бес	-1957
▁дене	-1958
2.	-1959
▁мир	-1960
▁муж	-1961
▁уби	-1962
точно	-1963
▁жела	-1964
▁результате	-1965
рю	-1966
▁Хо	-1967
▁тут	-1968
▁равно	-1969
▁заявил	-1970
▁момент	-1971
▁профе	-1972
▁часто	-1973
зад	-1974
▁уго	-1975
▁среди	-1976
▁Сер	-1977
СС	-1978
жды	-1979
нин	-1980
▁всем	-1981
тные	-1982
ческую	-1983
▁пребы	-1984
лле	-1985
рез	-1986
▁вра	-1987
▁мень	-1988
▁необходимо	-1989
На	-1990
бри	-1991
пози	-1992
хода	-1993
▁назад	-1994
тельного	-1995
▁говорит	-1996
кви	-1997
▁взя	-1998
будь	-1999
пыта	-2000
▁Кроме	-2001
II	-2002
▁17	-2003
▁цер	-2004
▁карти	-2005
жит	-2006
▁ним	-2007
более	-2008
▁Статья	-2009
▁деятельности	-2010
мии	-2011
сон	-2012
волю	-2013
ента	-2014
▁вместе	-2015
▁распростра	-2016
▁возможность	-2017
дума	-2018
фика	-2019
▁Под	-2020
▁бан	-2021
▁поя	-2022
▁постоя	-2023
Ко	-2024
▁16	-2025
▁Гла	-2026
▁твор	-2027
стью	-2028
конча	-2029
▁заклю	-2030
▁котором	-2031
▁пес	-2032
1%80%	-2033
▁особенно	-2034
of	-2035
тек	-2036
сона	-2037
лют	-2038
доров	-2039
строе	-2040
▁актив	-2041
▁возра	-2042
жений	-2043
ником	-2044
▁пыта	-2045
лит	-2046
шую	-2047
▁вас	-2048
▁рын	-2049
▁коман	-2050
▁наблю	-2051
▁такие	-2052
ведение	-2053
na	-2054
ъек	-2055
▁анг	-2056
вости	-2057
▁Республи	-2058
дит	-2059
тый	-2060
▁оно	-2061
▁тыс	-2062
▁фон	-2063
▁влия	-2064
▁продук	-2065
▁официаль	-2066
▁территории	-2067
тых	-2068
держ	-2069
▁аль	-2070
▁журна	-2071
рование	-2072
▁международ	-2073
ешь	-2074
вари	-2075
рами	-2076
▁ква	-2077
▁3.	-2078
▁обна	-2079
▁мар	-2080
чности	-2081
▁говоря	-2082
▁пя	-2083
▁форми	-2084
▁соответствии	-2085
дия	-2086
▁14	-2087
жной	-2088
:2011	-2089
▁разре	-2090
▁включа	-2091
_1	-2092
▁словам	-2093
ственной	-2094
дви	-2095
▁нико	-2096
▁спра	-2097
▁появи	-2098
▁Она	-2099
ологи	-2100
влении	-2101
▁контро	-2102
▁свобод	-2103
ствовать	-2104
▁безопас	-2105
▁сделать	-2106
льтура	-2107
мати	-2108
пада	-2109
▁Гри	-2110
▁окру	-2111
нибудь	-2112
▁строи	-2113
os	-2114
▁V	-2115
док	-2116
▁чер	-2117
▁срав	-2118
▁столи	-2119
дут	-2120
▁13	-2121
нной	-2122
▁ау	-2123
▁деле	-2124
▁кажды	-2125
▁сообщи	-2126
▁такого	-2127
▁возможно	-2128
▁Ге	-2129
пере	-2130
▁лиц	-2131
числе	-2132
▁такое	-2133
▁первый	-2134
▁организации	-2135
ору	-2136
пли	-2137
▁маши	-2138
▁поку	-2139
=%	-2140
▁зву	-2141
▁одна	-2142
▁повы	-2143
▁изобра	-2144
▁существо	-2145
ut	-2146
нден	-2147
pedia	-2148
ктически	-2149
tic	-2150
▁люби	-2151
▁стало	-2152
тка	-2153
▁сохра	-2154
▁коро	-2155
ционного	-2156
▁спор	-2157
▁город	-2158
▁H	-2159
▁вариан	-2160
3%	-2161
тел	-2162
трен	-2163
ментов	-2164
▁стали	-2165
принима	-2166
▁взаимо	-2167
риа	-2168
ссия	-2169
▁сразу	-2170
▁истории	-2171
▁ей	-2172
▁века	-2173
чат	-2174
верх	-2175
обре	-2176
▁большин	-2177
▁бло	-2178
▁Фран	-2179
▁месте	-2180
▁площа	-2181
▁президент	-2182
вин	-2183
рах	-2184
шла	-2185
▁дека	-2186
руется	-2187
телями	-2188
wikipedia	-2189
рё	-2190
▁кру	-2191
верси	-2192
▁детей	-2193
▁начала	-2194
выми	-2195
знача	-2196
▁гото	-2197
▁собра	-2198
кими	-2199
:2009	-2200
▁техни	-2201
▁кар	-2202
▁информации	-2203
тельное	-2204
▁обязан	-2205
бро	-2206
лых	-2207
▁отпра	-2208
▁форма	-2209
▁производи	-2210
лый	-2211
мых	-2212
Меди	-2213
возмо	-2214
смотря	-2215
▁законода	-2216
.)	-2217
BB	-2218
рко	-2219
ум	-2220
▁E	-2221
шло	-2222
ногда	-2223
▁коми	-2224
▁мало	-2225
▁анали	-2226
▁лучше	-2227
▁являются	-2228
лиш	-2229
▁Ла	-2230
▁Пе	-2231
▁внеш	-2232
▁сами	-2233
▁собы	-2234
Культура	-2235
30	-2236
=5	-2237
еме	-2238
▁сол	-2239
скими	-2240
гото	-2241
нный	-2242
шать	-2243
▁биз	-2244
▁хра	-2245
▁скоро	-2246
▁произо	-2247
▁поэтому	-2248
ясь	-2249
▁ал	-2250
▁сум	-2251
▁совсем	-2252
▁представля	-2253
шет	-2254
▁30	-2255
▁ян	-2256
▁198	-2257
▁сни	-2258
▁хорошо	-2259
▁проводи	-2260
▁количество	-2261
лежа	-2262
чная	-2263
чным	-2264
▁клу	-2265
менты	-2266
▁следует	-2267
шёл	-2268
▁дере	-2269
▁рекла	-2270
▁практически	-2271
евра	-2272
▁сен	-2273
телям	-2274
▁коле	-2275
▁млрд	-2276
дят	-2277
зер	-2278
сили	-2279
▁вол	-2280
1%81%	-2281
▁отли	-2282
▁подтвер	-2283
▁администра	-2284
ляется	-2285
▁глаза	-2286
▁почему	-2287
▁образова	-2288
лла	-2289
▁недо	-2290
▁корре	-2291
ri	-2292
нице	-2293
▁стала	-2294
▁Россия	-2295
след	-2296
▁Дми	-2297
▁отве	-2298
▁верси	-2299
▁O	-2300
каз	-2301
тая	-2302
образ	-2303
▁деву	-2304
▁широ	-2305
▁тысяч	-2306
ственных	-2307
жил	-2308
▁сообщает	-2309
емые	-2310
▁Воз	-2311
▁2010	-2312
▁пись	-2313
▁пребывания	-2314
стру	-2315
▁Вели	-2316
ческим	-2317
▁какие	-2318
▁стране	-2319
▁президента	-2320
шка	-2321
▁спро	-2322
▁находя	-2323
езд	-2324
тые	-2325
▁Лю	-2326
фере	-2327
▁ведь	-2328
▁деньги	-2329
кола	-2330
тной	-2331
▁ули	-2332
фу	-2333
▁чле	-2334
▁эле	-2335
▁Герма	-2336
▁интернет	-2337
чё	-2338
▁Ос	-2339
пара	-2340
▁собира	-2341
▁студен	-2342
▁Поэтому	-2343
▁гео	-2344
▁мет	-2345
▁нало	-2346
▁посе	-2347
▁должна	-2348
▁средств	-2349
BA	-2350
иль	-2351
лой	-2352
ьер	-2353
▁анти	-2354
деть	-2355
ремя	-2356
▁система	-2357
1.	-2358
▁второй	-2359
▁которую	-2360
4%	-2361
дца	-2362
▁(«	-2363
▁свет	-2364
▁февра	-2365
▁Ха	-2366
вобо	-2367
▁типа	-2368
▁частности	-2369
ква	-2370
сер	-2371
юсь	-2372
Медиа	-2373
▁семь	-2374
▁популяр	-2375
▁течение	-2376
_3	-2377
еть	-2378
▁ито	-2379
нного	-2380
▁Миха	-2381
няя	-2382
цов	-2383
▁25	-2384
личие	-2385
▁замет	-2386
▁стоит	-2387
лень	-2388
сить	-2389
▁отношения	-2390
ros	-2391
стя	-2392
льзя	-2393
нина	-2394
▁край	-2395
▁памя	-2396
▁источ	-2397
▁закры	-2398
▁книги	-2399
тельным	-2400
лик	-2401
▁гор	-2402
▁оцен	-2403
▁серь	-2404
ствуют	-2405
тивных	-2406
▁Когда	-2407
▁компью	-2408
гии	-2409
гани	-2410
▁дово	-2411
▁новых	-2412
писи	-2413
фици	-2414
▁обсу	-2415
▁фоне	-2416
▁янва	-2417
▁своим	-2418
▁проблемы	-2419
тон	-2420
▁учё	-2421
▁Боль	-2422
▁выда	-2423
▁лицо	-2424
кономика	-2425
МИ	-2426
все	-2427
доро	-2428
▁неиз	-2429
▁сбор	-2430
▁требу	-2431
▁Москвы	-2432
ныне	-2433
таль	-2434
▁выбо	-2435
▁обви	-2436
▁журнали	-2437
▁сказать	-2438
хе	-2439
нил	-2440
вшей	-2441
▁дли	-2442
▁юри	-2443
▁един	-2444
вен	-2445
нений	-2446
▁годы	-2447
▁пригла	-2448
роб	-2449
ске	-2450
емой	-2451
▁сце	-2452
▁друг	-2453
▁пово	-2454
▁суде	-2455
ter	-2456
▁Че	-2457
стом	-2458
▁наро	-2459
▁назна	-2460
▁бюджет	-2461
тических	-2462
zh	-2463
▁Y	-2464
▁Прави	-2465
▁каждо	-2466
▁прибы	-2467
▁самом	-2468
▁таким	-2469
▁Москве	-2470
▁характери	-2471
▁ав	-2472
писы	-2473
чать	-2474
▁тол	-2475
▁геро	-2476
▁наме	-2477
прочем	-2478
▁работ	-2479
ственного	-2480
▁совершенно	-2481
-1	-2482
000	-2483
пря	-2484
либо	-2485
раба	-2486
▁симво	-2487
гие	-2488
пута	-2489
▁простран	-2490
лые	-2491
▁кли	-2492
▁войны	-2493
▁оконча	-2494
▁статье	-2495
Те	-2496
▁неф	-2497
ностей	-2498
▁независи	-2499
▁характер	-2500
▁предусмотре	-2501
▁лег	-2502
▁массо	-2503
▁конкре	-2504
▁нового	-2505
▁%	-2506
▁бро	-2507
▁оце	-2508
вался	-2509
ющими	-2510
▁огром	-2511
▁возвра	-2512
▁каждый	-2513
▁достаточно	-2514
жем	-2515
▁Бы	-2516
прав	-2517
▁Раз	-2518
▁Пере	-2519
▁хозя	-2520
3.	-2521
▁t	-2522
рее	-2523
поли	-2524
сной	-2525
▁сай	-2526
▁све	-2527
▁возник	-2528
▁субъек	-2529
▁внутрен	-2530
▁располо	-2531
▁предлага	-2532
▁технологи	-2533
▁0	-2534
еру	-2535
жать	-2536
▁вок	-2537
▁всю	-2538
▁похо	-2539
▁долго	-2540
ook	-2541
мая	-2542
сил	-2543
ходят	-2544
▁принад	-2545
la	-2546
мыш	-2547
▁Ду	-2548
▁изу	-2549
▁новые	-2550
▁многие	-2551
▁станови	-2552
▁финансо	-2553
Экономика	-2554
сей	-2555
чное	-2556
▁197	-2557
▁мая	-2558
рение	-2559
▁апре	-2560
▁земе	-2561
▁прове	-2562
▁этому	-2563
ссы	-2564
таки	-2565
влены	-2566
▁перево	-2567
▁очередь	-2568
▁уме	-2569
artic	-2570
тного	-2571
▁слож	-2572
никами	-2573
article	-2574
▁поддерж	-2575
▁порядке	-2576
▁компания	-2577
их	-2578
▁рам	-2579
вшись	-2580
▁народ	-2581
▁экспе	-2582
▁отказа	-2583
▁работу	-2584
нда	-2585
▁Ди	-2586
1%82%	-2587
способ	-2588
▁празд	-2589
▁первой	-2590
,5	-2591
рить	-2592
▁аген	-2593
▁психо	-2594
▁треть	-2595
▁объеди	-2596
▁Республики	-2597
гры	-2598
лев	-2599
▁суда	-2600
▁одним	-2601
▁совме	-2602
▁доказа	-2603
▁невозмо	-2604
▁никогда	-2605
18	-2606
пов	-2607
▁Ти	-2608
▁нуж	-2609
риста	-2610
версите	-2611
▁руковод	-2612
▁специали	-2613
мые	-2614
▁оши	-2615
▁доба	-2616
▁чрез	-2617
▁часов	-2618
▁доступ	-2619
▁наиболее	-2620
▁руководи	-2621
джа	-2622
ниче	-2623
тербур	-2624
▁вполне	-2625
▁основе	-2626
▁стоимо	-2627
бля	-2628
дел	-2629
зей	-2630
рес	-2631
ктора	-2632
▁полно	-2633
no	-2634
нт	-2635
нев	-2636
пыт	-2637
шед	-2638
▁борь	-2639
▁индиви	-2640
▁музыка	-2641
▁практи	-2642
▁Хра	-2643
▁каса	-2644
▁фран	-2645
чением	-2646
▁кризи	-2647
▁культуры	-2648
▁полностью	-2649
лок	-2650
▁ана	-2651
▁вам	-2652
▁всей	-2653
▁разо	-2654
▁цель	-2655
▁самых	-2656
▁четыре	-2657
▁интерес	-2658
▁которым	-2659
▁поко	-2660
▁узна	-2661
▁новый	-2662
▁исполни	-2663
сам	-2664
гами	-2665
шает	-2666
▁кур	-2667
▁род	-2668
туаль	-2669
20	-2670
25	-2671
лова	-2672
▁архи	-2673
▁служ	-2674
▁плани	-2675
▁населения	-2676
▁ответствен	-2677
▁требования	-2678
зин	-2679
пор	-2680
стр	-2681
чей	-2682
шел	-2683
▁Пи	-2684
хани	-2685
▁фото	-2686
▁нельзя	-2687
▁центра	-2688
▁Президен	-2689
um	-2690
▁уж	-2691
▁выска	-2692
▁возможности	-2693
▁обу	-2694
▁убе	-2695
▁ново	-2696
▁роль	-2697
▁отмеча	-2698
▁транспо	-2699
▁Владимир	-2700
▁вид	-2701
▁дер	-2702
▁спу	-2703
▁ресур	-2704
▁известно	-2705
они	-2706
емого	-2707
льном	-2708
▁видео	-2709
im	-2710
ub	-2711
▁Би	-2712
▁условиях	-2713
▁находится	-2714
▁рассмотре	-2715
ace	-2716
▁фе	-2717
стно	-2718
стати	-2719
чность	-2720
ниц	-2721
лами	-2722
роде	-2723
▁Тем	-2724
хнологии	-2725
▁наблюда	-2726
▁составля	-2727
▁средства	-2728
ёз	-2729
вок	-2730
вало	-2731
руют	-2732
чном	-2733
▁имеют	-2734
▁коллек	-2735
▁устрой	-2736
▁безопасности	-2737
юз	-2738
▁Его	-2739
▁нако	-2740
▁делать	-2741
▁начале	-2742
▁период	-2743
жо	-2744
рое	-2745
сми	-2746
вычай	-2747
▁коло	-2748
▁участие	-2749
кет	-2750
▁сю	-2751
навли	-2752
торов	-2753
лишком	-2754
первые	-2755
▁оказыва	-2756
чку	-2757
воль	-2758
влено	-2759
▁посвя	-2760
▁данным	-2761
▁некоторые	-2762
Но	-2763
▁выс	-2764
▁дней	-2765
▁пост	-2766
▁реко	-2767
▁встреча	-2768
▁выступа	-2769
▁рассматри	-2770
ou	-2771
сё	-2772
деле	-2773
цами	-2774
зация	-2775
▁бога	-2776
▁забо	-2777
▁мета	-2778
ционной	-2779
▁утвержда	-2780
▁происходит	-2781
10	-2782
жей	-2783
сок	-2784
tion	-2785
▁Бер	-2786
▁ныне	-2787
▁пожа	-2788
жением	-2789
▁неболь	-2790
▁региона	-2791
ed	-2792
ent	-2793
нта	-2794
влека	-2795
▁образ	-2796
▁ожида	-2797
▁истори	-2798
▁Ло	-2799
▁хи	-2800
даря	-2801
мьер	-2802
▁СМИ	-2803
▁вида	-2804
▁свое	-2805
вались	-2806
▁сокра	-2807
▁многих	-2808
▁программ	-2809
дина	-2810
▁гро	-2811
▁види	-2812
▁Таким	-2813
▁прямо	-2814
▁полови	-2815
▁превра	-2816
▁парамет	-2817
▁приходи	-2818
Мет	-2819
рок	-2820
влет	-2821
▁Сан	-2822
▁ост	-2823
▁Также	-2824
▁затем	-2825
▁мнению	-2826
▁определен	-2827
▁программы	-2828
and	-2829
ing	-2830
▁вд	-2831
туре	-2832
▁марта	-2833
▁распо	-2834
▁точки	-2835
▁Например	-2836
За	-2837
нки	-2838
щён	-2839
▁срок	-2840
▁зрения	-2841
book	-2842
леко	-2843
▁Спа	-2844
▁выз	-2845
▁кан	-2846
ровал	-2847
▁укра	-2848
ческом	-2849
▁меньше	-2850
чик	-2851
вшим	-2852
▁...	-2853
▁Анд	-2854
▁нес	-2855
▁свиде	-2856
спонден	-2857
▁обстоя	-2858
▁европей	-2859
▁помощью	-2860
▁эффектив	-2861
вид	-2862
дем	-2863
кри	-2864
лина	-2865
нете	-2866
нять	-2867
▁той	-2868
щении	-2869
стного	-2870
▁самого	-2871
▁приобре	-2872
ob	-2873
нской	-2874
▁2011	-2875
▁угро	-2876
▁дополни	-2877
лению	-2878
▁описа	-2879
▁быстро	-2880
▁несколь	-2881
рус	-2882
лосо	-2883
▁ори	-2884
▁стар	-2885
ссиона	-2886
Технологии	-2887
▁чрезвычай	-2888
ева	-2889
деля	-2890
▁неме	-2891
▁ядер	-2892
▁Время	-2893
приятия	-2894
▁смерти	-2895
▁)	-2896
▁регу	-2897
зывать	-2898
▁слишком	-2899
▁исследования	-2900
50	-2901
60	-2902
▁22	-2903
▁осно	-2904
▁попа	-2905
▁ранее	-2906
▁целом	-2907
▁Дмитри	-2908
▁внимание	-2909
бом	-2910
▁Ри	-2911
▁оби	-2912
щества	-2913
▁взгля	-2914
pp	-2915
ъя	-2916
▁K	-2917
»).	-2918
гом	-2919
мень	-2920
форми	-2921
▁силу	-2922
говори	-2923
▁друга	-2924
▁форму	-2925
▁данных	-2926
тельством	-2927
od	-2928
шно	-2929
скор	-2930
▁Согла	-2931
▁завер	-2932
▁прежде	-2933
зь	-2934
гах	-2935
Метка	-2936
▁кока	-2937
▁пять	-2938
▁проте	-2939
▁февраля	-2940
зем	-2941
▁2009	-2942
▁вспо	-2943
тельная	-2944
ственные	-2945
ственный	-2946
▁считает	-2947
▁последние	-2948
4.	-2949
ницу	-2950
▁мере	-2951
▁отда	-2952
▁новой	-2953
▁судеб	-2954
▁юриди	-2955
под	-2956
ссу	-2957
чёт	-2958
веро	-2959
читы	-2960
▁оте	-2961
▁ску	-2962
▁пишет	-2963
▁механи	-2964
▁января	-2965
тические	-2966
▁религиоз	-2967
▁уг	-2968
▁кры	-2969
клады	-2970
▁мину	-2971
▁выбора	-2972
▁действительно	-2973
40	-2974
рос	-2975
льную	-2976
▁судь	-2977
влением	-2978
▁иногда	-2979
▁работать	-2980
▁университе	-2981
ki	-2982
рёх	-2983
сед	-2984
▁Ав	-2985
тный	-2986
▁The	-2987
лений	-2988
чении	-2989
▁заме	-2990
▁июня	-2991
▁Амери	-2992
▁Между	-2993
тельств	-2994
▁потреб	-2995
▁случай	-2996
▁J	-2997
тики	-2998
▁гре	-2999
▁дире	-3000
▁неда	-3001
▁самым	-3002
▁число	-3003
▁движения	-3004
▁Александр	-3005
em	-3006
200	-3007
нге	-3008
клад	-3009
можен	-3010
нению	-3011
▁счет	-3012
▁созна	-3013
▁большой	-3014
▁стандар	-3015
▁экспери	-3016
▁Германии	-3017
лай	-3018
▁4.	-3019
тива	-3020
▁учре	-3021
▁автор	-3022
▁капита	-3023
▁облада	-3024
▁персона	-3025
▁документа	-3026
сят	-3027
▁Ана	-3028
▁ауди	-3029
▁кора	-3030
▁куда	-3031
▁пора	-3032
▁никто	-3033
▁труда	-3034
ционных	-3035
▁возника	-3036
▁рассказа	-3037
▁некоторых	-3038
▁Мин	-3039
▁ими	-3040
дения	-3041
▁состо	-3042
▁парово	-3043
▁примерно	-3044
▁U	-3045
дро	-3046
рыв	-3047
▁ред	-3048
▁доме	-3049
▁стек	-3050
ременно	-3051
▁группа	-3052
▁измени	-3053
▁присут	-3054
▁разных	-3055
▁институ	-3056
▁искусства	-3057
og	-3058
вез	-3059
кин	-3060
мым	-3061
▁км	-3062
ющую	-3063
▁зда	-3064
▁сети	-3065
▁месту	-3066
▁нашей	-3067
▁установлен	-3068
ad	-3069
ина	-3070
рил	-3071
лении	-3072
служи	-3073
тирует	-3074
тивного	-3075
▁рамках	-3076
▁российских	-3077
гей	-3078
жай	-3079
▁Ор	-3080
▁196	-3081
▁газ	-3082
▁партии	-3083
рем	-3084
▁Аф	-3085
меть	-3086
сова	-3087
чены	-3088
▁Эти	-3089
ритан	-3090
ющихся	-3091
▁Иваны	-3092
ционный	-3093
▁воздей	-3094
▁позволяет	-3095
▁Каза	-3096
▁реда	-3097
няется	-3098
▁расши	-3099
▁закона	-3100
▁настоящее	-3101
вь	-3102
эн	-3103
гли	-3104
лях	-3105
▁ды	-3106
блио	-3107
▁ноя	-3108
▁близ	-3109
▁древ	-3110
▁Интер	-3111
мин	-3112
мость	-3113
тации	-3114
▁общества	-3115
▁разработ	-3116
▁корреспонден	-3117
моби	-3118
▁пле	-3119
▁сих	-3120
говор	-3121
надца	-3122
▁2008	-3123
▁кана	-3124
▁обычно	-3125
▁станет	-3126
▁говорить	-3127
дж	-3128
рин	-3129
тил	-3130
лета	-3131
▁Пет	-3132
▁пов	-3133
▁уровня	-3134
▁сколько	-3135
▁государственной	-3136
вшая	-3137
сами	-3138
▁аре	-3139
солют	-3140
▁авгу	-3141
▁пяти	-3142
▁ходе	-3143
▁стату	-3144
▁класси	-3145
ственное	-3146
▁проекта	-3147
▁определя	-3148
▁предполага	-3149
▁21	-3150
▁ца	-3151
платы	-3152
▁конц	-3153
▁знако	-3154
▁модели	-3155
▁декабря	-3156
▁конститу	-3157
▁отношении	-3158
=4	-3159
лко	-3160
тни	-3161
емый	-3162
телю	-3163
▁демо	-3164
вляется	-3165
▁вокруг	-3166
▁сторон	-3167
▁удовлет	-3168
гно	-3169
сит	-3170
жден	-3171
лить	-3172
▁нор	-3173
▁слы	-3174
зывает	-3175
▁комму	-3176
▁проекти	-3177
ne	-3178
гам	-3179
жены	-3180
▁100	-3181
▁Пор	-3182
▁уви	-3183
▁хва	-3184
▁поро	-3185
графии	-3186
▁серви	-3187
▁снова	-3188
▁малень	-3189
16	-3190
7.	-3191
чил	-3192
▁:)	-3193
▁бере	-3194
▁веро	-3195
▁золо	-3196
▁тебя	-3197
▁верну	-3198
▁самое	-3199
▁самой	-3200
▁спосо	-3201
ческими	-3202
▁объяви	-3203
sh	-3204
отя	-3205
▁имя	-3206
▁ран	-3207
▁Кодек	-3208
acebook	-3209
▁опубли	-3210
▁уровне	-3211
▁законом	-3212
▁увеличи	-3213
▁конструк	-3214
▁назва	-3215
▁оружи	-3216
▁слово	-3217
▁чемпи	-3218
▁вопросы	-3219
▁условия	-3220
▁положения	-3221
▁осуществля	-3222
▁пользователей	-3223
езда	-3224
емон	-3225
▁пути	-3226
▁точно	-3227
▁апреля	-3228
ственным	-3229
▁перегово	-3230
▁республи	-3231
▁противоре	-3232
лам	-3233
▁НА	-3234
▁кня	-3235
▁ряд	-3236
никам	-3237
▁своё	-3238
льными	-3239
тивной	-3240
▁пользу	-3241
▁францу	-3242
▁процесс	-3243
▁правительства	-3244
35	-3245
щему	-3246
▁Сто	-3247
▁реб	-3248
▁шта	-3249
▁комна	-3250
▁перво	-3251
▁англий	-3252
▁творче	-3253
дий	-3254
тиви	-3255
▁мощ	-3256
▁есте	-3257
▁коль	-3258
▁глава	-3259
▁уровень	-3260
▁Согласно	-3261
▁использовать	-3262
Ка	-3263
ССР	-3264
лег	-3265
▁ката	-3266
▁восто	-3267
▁отлича	-3268
▁становится	-3269
вит	-3270
▁ус	-3271
шему	-3272
готов	-3273
▁Глав	-3274
▁Хотя	-3275
▁веду	-3276
рабаты	-3277
▁множе	-3278
▁проект	-3279
▁помещения	-3280
тым	-3281
▁мор	-3282
▁стол	-3283
бло	-3284
▁50	-3285
сред	-3286
мышлен	-3287
▁запад	-3288
▁состав	-3289
▁комплек	-3290
вки	-3291
вов	-3292
мпа	-3293
юза	-3294
вода	-3295
рица	-3296
тать	-3297
циях	-3298
▁Япо	-3299
щается	-3300
▁Север	-3301
▁получить	-3302
▁составляет	-3303
ОН	-3304
дил	-3305
нная	-3306
нным	-3307
нении	-3308
▁прожи	-3309
▁худож	-3310
сколько	-3311
▁Никола	-3312
▁профессиона	-3313
22	-3314
вью	-3315
вёр	-3316
мый	-3317
жные	-3318
чную	-3319
▁СССР	-3320
▁услу	-3321
▁удалось	-3322
Ин	-3323
▁Фи	-3324
бран	-3325
логии	-3326
▁приз	-3327
▁рома	-3328
▁желез	-3329
▁нынеш	-3330
▁остро	-3331
▁изменения	-3332
▁Ис	-3333
чета	-3334
▁Мак	-3335
▁най	-3336
ковой	-3337
ходов	-3338
▁пото	-3339
тивные	-3340
▁вдруг	-3341
▁денег	-3342
следова	-3343
▁таможен	-3344
▁существует	-3345
ис	-3346
▁Рас	-3347
▁наши	-3348
▁сере	-3349
▁беспо	-3350
▁одном	-3351
▁парла	-3352
▁проблема	-3353
тбо	-3354
креп	-3355
▁работе	-3356
▁кажется	-3357
кну	-3358
▁въ	-3359
▁меро	-3360
▁цели	-3361
▁времен	-3362
▁задачи	-3363
▁заседа	-3364
▁впервые	-3365
▁подписа	-3366
▁позволя	-3367
15	-3368
лка	-3369
рит	-3370
циан	-3371
▁уверен	-3372
6.	-3373
дон	-3374
зия	-3375
пода	-3376
тина	-3377
▁Оба	-3378
▁нее	-3379
жного	-3380
▁Само	-3381
▁кого	-3382
▁годов	-3383
▁давно	-3384
ального	-3385
доровье	-3386
▁библио	-3387
za	-3388
▁съ	-3389
рите	-3390
▁Мед	-3391
стива	-3392
▁Исто	-3393
▁приве	-3394
▁фильм	-3395
▁означа	-3396
▁сильно	-3397
▁абсолют	-3398
▁получил	-3399
▁согласи	-3400
▁конкурен	-3401
▁ситуации	-3402
шить	-3403
▁напо	-3404
егодня	-3405
▁такая	-3406
▁данные	-3407
▁объекта	-3408
▁Нет	-3409
брита	-3410
кобрита	-3411
▁весьма	-3412
▁театра	-3413
▁поддержи	-3414
▁различных	-3415
▁технологии	-3416
BC	-3417
эро	-3418
▁ини	-3419
▁поги	-3420
▁поле	-3421
ровали	-3422
▁окружа	-3423
▁провер	-3424
▁церков	-3425
▁последова	-3426
un	-3427
ТО	-3428
вей	-3429
▁2012	-3430
▁выяс	-3431
▁опас	-3432
▁иметь	-3433
▁помощи	-3434
▁недоста	-3435
▁немного	-3436
▁правило	-3437
нюю	-3438
шек	-3439
▁мя	-3440
▁194	-3441
▁мол	-3442
▁неё	-3443
шлось	-3444
▁Мини	-3445
▁забы	-3446
▁автомоби	-3447
▁действий	-3448
▁название	-3449
38	-3450
нета	-3451
▁объя	-3452
▁сезо	-3453
▁косми	-3454
▁нарко	-3455
тельную	-3456
▁довольно	-3457
▁индивиду	-3458
▁процессе	-3459
▁предпринима	-3460
лах	-3461
сах	-3462
кции	-3463
▁Зем	-3464
▁рав	-3465
▁полез	-3466
▁десяти	-3467
▁инстру	-3468
▁органов	-3469
Во	-3470
/03	-3471
анг	-3472
еты	-3473
зор	-3474
▁уз	-3475
пора	-3476
рого	-3477
▁Сле	-3478
▁оди	-3479
▁тро	-3480
▁мага	-3481
▁чуть	-3482
▁конца	-3483
▁смотре	-3484
▁художе	-3485
▁октября	-3486
нему	-3487
ятно	-3488
▁оде	-3489
▁силы	-3490
▁госпо	-3491
▁дальше	-3492
▁значит	-3493
▁говорят	-3494
▁дальней	-3495
▁сентября	-3496
17	-3497
плу	-3498
тию	-3499
▁ан	-3500
▁(19	-3501
▁Кра	-3502
тивно	-3503
▁июля	-3504
▁кате	-3505
▁спек	-3506
▁готов	-3507
▁хозяй	-3508
▁бизнес	-3509
▁вместо	-3510
▁применя	-3511
.:	-3512
ka	-3513
нё	-3514
гни	-3515
дор	-3516
мни	-3517
▁In	-3518
▁ото	-3519
▁воды	-3520
▁утра	-3521
▁минут	-3522
▁секре	-3523
▁чинов	-3524
▁Впрочем	-3525
▁объектов	-3526
▁православ	-3527
обо	-3528
цам	-3529
дами	-3530
рного	-3531
тории	-3532
▁книг	-3533
▁стоя	-3534
▁могли	-3535
▁относительно	-3536
ny	-3537
Мо	-3538
▁i	-3539
виа	-3540
▁24	-3541
тили	-3542
чными	-3543
▁знаю	-3544
▁парт	-3545
ходить	-3546
▁наших	-3547
▁своими	-3548
▁сообщил	-3549
▁развитие	-3550
▁регистра	-3551
ВД	-3552
gre	-3553
сен	-3554
шта	-3555
пись	-3556
▁Дру	-3557
▁мат	-3558
берна	-3559
циями	-3560
▁Есть	-3561
▁демон	-3562
▁москов	-3563
▁первую	-3564
▁решений	-3565
▁случаях	-3566
▁указыва	-3567
зан	-3568
лим	-3569
чит	-3570
▁иму	-3571
▁низ	-3572
▁эпо	-3573
влять	-3574
▁космо	-3575
▁испыта	-3576
▁скорее	-3577
▁первого	-3578
▁миллионов	-3579
5.	-3580
op	-3581
Про	-3582
▁ссы	-3583
▁тон	-3584
▁ними	-3585
▁Спаси	-3586
▁оборо	-3587
▁ближай	-3588
▁задержа	-3589
▁каждого	-3590
новременно	-3591
зом	-3592
рых	-3593
▁лу	-3594
▁ощу	-3595
▁заста	-3596
▁рейти	-3597
мую	-3598
чие	-3599
▁еже	-3600
прави	-3601
вленных	-3602
▁внутри	-3603
▁четвер	-3604
▁Сегодня	-3605
▁систему	-3606
дида	-3607
▁вет	-3608
▁поэ	-3609
помним	-3610
▁разно	-3611
▁медици	-3612
тический	-3613
▁постоянно	-3614
эй	-3615
ньше	-3616
рана	-3617
чено	-3618
▁Вто	-3619
▁буд	-3620
▁дом	-3621
▁2007	-3622
▁веру	-3623
▁имени	-3624
▁напря	-3625
▁генера	-3626
▁благодаря	-3627
▁нескольких	-3628
мия	-3629
рис	-3630
жает	-3631
жный	-3632
нное	-3633
▁Поч	-3634
▁зри	-3635
▁рез	-3636
проек	-3637
▁хоть	-3638
▁любой	-3639
▁самый	-3640
▁сопро	-3641
▁отвеча	-3642
▁социальной	-3643
▁л	-3644
▁шо	-3645
▁Эта	-3646
▁тур	-3647
▁поте	-3648
▁кроме	-3649
▁начал	-3650
▁попро	-3651
▁Теперь	-3652
▁поводу	-3653
▁требова	-3654
▁производства	-3655
ила	-3656
чий	-3657
▁Чи	-3658
▁ум	-3659
▁выпу	-3660
▁нена	-3661
▁роли	-3662
▁учеб	-3663
Россия	-3664
▁возду	-3665
▁посте	-3666
▁привы	-3667
▁роман	-3668
▁употре	-3669
▁выполня	-3670
▁совершен	-3671
▁Президент	-3672
28	-3673
7%	-3674
лог	-3675
били	-3676
енси	-3677
▁Игна	-3678
▁иска	-3679
▁рода	-3680
▁макси	-3681
▁покупа	-3682
▁процен	-3683
▁российской	-3684
▁Великобрита	-3685
жён	-3686
кар	-3687
пени	-3688
▁моз	-3689
▁легко	-3690
▁кварти	-3691
▁проблем	-3692
/01	-3693
дили	-3694
нили	-3695
ходы	-3696
▁Бра	-3697
▁мате	-3698
▁пове	-3699
▁позд	-3700
кологи	-3701
▁избира	-3702
▁освобо	-3703
▁особен	-3704
▁подчер	-3705
ступления	-3706
▁неизвест	-3707
▁подготов	-3708
▁работает	-3709
▁распреде	-3710
▁зависимости	-3711
Со	-3712
печат	-3713
часть	-3714
▁речь	-3715
▁мигра	-3716
▁приро	-3717
▁радио	-3718
полнения	-3719
▁Медведе	-3720
▁Facebook	-3721
▁значение	-3722
▁[	-3723
oft	-3724
куп	-3725
мах	-3726
▁Гу	-3727
плуа	-3728
спек	-3729
▁каза	-3730
▁тебе	-3731
ющиеся	-3732
▁крити	-3733
▁мужчи	-3734
▁навер	-3735
ристиан	-3736
▁смысле	-3737
▁странах	-3738
!»	-3739
27	-3740
do	-3741
ist	-3742
лоб	-3743
▁ЕС	-3744
▁ск	-3745
мимо	-3746
чера	-3747
▁Кар	-3748
▁дра	-3749
стных	-3750
циони	-3751
▁пору	-3752
▁язык	-3753
нского	-3754
▁контра	-3755
▁музыкан	-3756
▁француз	-3757
▁касается	-3758
▁самостоя	-3759
▁цитирует	-3760
▁представляет	-3761
14	-3762
pro	-3763
гой	-3764
лое	-3765
хом	-3766
▁28	-3767
ссий	-3768
▁кро	-3769
▁сня	-3770
влена	-3771
стики	-3772
щений	-3773
▁след	-3774
▁главы	-3775
▁каких	-3776
▁прово	-3777
▁Иваныч	-3778
▁концеп	-3779
▁раньше	-3780
▁украин	-3781
▁образования	-3782
»)	-3783
/04	-3784
/06	-3785
▁ап	-3786
гает	-3787
новь	-3788
▁Или	-3789
▁пой	-3790
▁проя	-3791
▁тяже	-3792
строен	-3793
▁демокра	-3794
▁женщины	-3795
▁считают	-3796
▁качества	-3797
▁обеспечи	-3798
ni	-3799
чих	-3800
▁шу	-3801
тным	-3802
▁Всё	-3803
▁реак	-3804
ченных	-3805
▁немец	-3806
▁Европы	-3807
▁поверх	-3808
▁несмотря	-3809
▁настоящего	-3810
29	-3811
Ве	-3812
сю	-3813
/07	-3814
два	-3815
шал	-3816
воре	-3817
▁Анг	-3818
:2006	-3819
ченко	-3820
▁2006	-3821
▁выну	-3822
▁изде	-3823
ir	-3824
ат	-3825
/10	-3826
год	-3827
чём	-3828
наче	-3829
▁пят	-3830
▁тан	-3831
▁Этот	-3832
▁семьи	-3833
▁форме	-3834
▁Сейчас	-3835
▁городе	-3836
▁депута	-3837
▁Напомним	-3838
мар	-3839
нте	-3840
обе	-3841
тит	-3842
шой	-3843
▁тю	-3844
кана	-3845
няет	-3846
▁фигу	-3847
▁бюдже	-3848
▁согласно	-3849
▁использования	-3850
ta	-3851
Пе	-3852
▁?	-3853
/05	-3854
туру	-3855
влений	-3856
интере	-3857
ступил	-3858
▁глубо	-3859
▁плохо	-3860
▁высоко	-3861
▁Государ	-3862
▁Дмитрий	-3863
▁допусти	-3864
▁приводи	-3865
▁читайте	-3866
▁председа	-3867
лор	-3868
чек	-3869
тона	-3870
▁уси	-3871
ведли	-3872
▁запа	-3873
▁руки	-3874
влению	-3875
зирова	-3876
▁повто	-3877
▁другим	-3878
▁инициа	-3879
▁подвер	-3880
▁посети	-3881
▁говорил	-3882
▁другими	-3883
▁положение	-3884
▁деятельность	-3885
дать	-3886
форм	-3887
щает	-3888
▁мой	-3889
▁воск	-3890
▁несо	-3891
▁опти	-3892
▁штра	-3893
▁агент	-3894
▁будем	-3895
▁британ	-3896
▁кандида	-3897
▁отметил	-3898
▁препода	-3899
бов	-3900
чений	-3901
▁бума	-3902
вшихся	-3903
▁Основ	-3904
▁вновь	-3905
▁китай	-3906
▁лицен	-3907
▁футбо	-3908
▁целью	-3909
▁Христа	-3910
▁степени	-3911
▁создания	-3912
▁управления	-3913
24	-3914
Не	-3915
гну	-3916
лым	-3917
▁40	-3918
▁Пра	-3919
▁Тре	-3920
▁диску	-3921
▁знает	-3922
▁разру	-3923
▁Россий	-3924
▁наконец	-3925
▁эксплуа	-3926
);	-3927
34	-3928
жд	-3929
▁Фе	-3930
мира	-3931
▁жерт	-3932
▁охра	-3933
▁ошиб	-3934
▁потен	-3935
▁языке	-3936
▁Россию	-3937
▁положи	-3938
▁уничто	-3939
▁рекомен	-3940
▁свойства	-3941
▁гражданина	-3942
ry	-3943
se	-3944
каде	-3945
▁бое	-3946
▁игро	-3947
▁одну	-3948
культу	-3949
▁мысли	-3950
▁опять	-3951
▁столь	-3952
▁включая	-3953
▁взаимодей	-3954
▁невозможно	-3955
анта	-3956
визи	-3957
гина	-3958
лены	-3959
произ	-3960
▁раза	-3961
▁запла	-3962
▁каким	-3963
▁устра	-3964
▁непосред	-3965
▁показыва	-3966
иму	-3967
фон	-3968
длен	-3969
тали	-3970
чика	-3971
▁Бело	-3972
▁дети	-3973
▁воспо	-3974
▁досто	-3975
▁духов	-3976
▁оскор	-3977
▁языка	-3978
▁беспла	-3979
▁двадца	-3980
▁полага	-3981
▁предна	-3982
▁спорта	-3983
▁создать	-3984
▁столько	-3985
▁библиоте	-3986
▁обнаружи	-3987
39	-3988
201	-3989
рно	-3990
тое	-3991
щать	-3992
▁Васи	-3993
которы	-3994
▁време	-3995
▁найти	-3996
▁семей	-3997
▁замеча	-3998
▁минима	-3999
▁револю	-4000
▁исключи	-4001
▁экономики	-4002
▁участников	-4003
гло	-4004
сля	-4005
цей	-4006
зить	-4007
мани	-4008
нией	-4009
▁мер	-4010
стави	-4011
▁Зако	-4012
▁идёт	-4013
▁поки	-4014
▁слов	-4015
жности	-4016
▁своём	-4017
▁величи	-4018
▁конкур	-4019
▁ноября	-4020
▁серьёз	-4021
▁августа	-4022
▁животных	-4023
▁определён	-4024
▁Конституции	-4025
▁собственности	-4026
75	-4027
ex	-4028
ul	-4029
нос	-4030
ющем	-4031
▁Зна	-4032
▁нём	-4033
▁циф	-4034
icros	-4035
▁лиде	-4036
▁болез	-4037
▁годах	-4038
▁соору	-4039
ционные	-4040
▁некото	-4041
▁отрица	-4042
▁устанавли	-4043
▁принадлежа	-4044
/11	-4045
▁ат	-4046
рина	-4047
▁Гре	-4048
▁сил	-4049
▁эпи	-4050
начала	-4051
▁выгля	-4052
▁Только	-4053
▁катего	-4054
▁правда	-4055
▁церкви	-4056
например	-4057
▁перевод	-4058
▁состоянии	-4059
ma	-4060
▁p	-4061
гут	-4062
▁of	-4063
▁зи	-4064
пове	-4065
реги	-4066
ссив	-4067
тиру	-4068
▁доб	-4069
ведён	-4070
▁сама	-4071
▁цвет	-4072
альной	-4073
▁общей	-4074
▁формы	-4075
ведений	-4076
▁Сергей	-4077
▁прибли	-4078
▁филосо	-4079
icrosoft	-4080
▁момента	-4081
▁предела	-4082
▁сторону	-4083
▁большинство	-4084
нга	-4085
▁Ch	-4086
Ygre	-4087
▁Кто	-4088
Ygrek	-4089
▁копи	-4090
▁скан	-4091
▁основном	-4092
▁процесса	-4093
лод	-4094
▁эмо	-4095
▁соба	-4096
▁удоб	-4097
▁лично	-4098
▁общем	-4099
приятий	-4100
ственная	-4101
▁переста	-4102
ck	-4103
бок	-4104
жал	-4105
пен	-4106
свя	-4107
▁26	-4108
прос	-4109
тром	-4110
▁неде	-4111
▁попы	-4112
лением	-4113
▁видов	-4114
▁другу	-4115
▁превы	-4116
▁терро	-4117
▁молоды	-4118
▁губерна	-4119
▁конфлик	-4120
!!	-4121
78	-4122
vi	-4123
Го	-4124
▁XV	-4125
ними	-4126
сения	-4127
▁вклю	-4128
▁иных	-4129
▁вроде	-4130
▁особо	-4131
▁оцени	-4132
▁учиты	-4133
▁далеко	-4134
▁систем	-4135
▁состояние	-4136
▁результаты	-4137
гер	-4138
порт	-4139
щика	-4140
▁Аль	-4141
▁дел	-4142
▁Джон	-4143
шением	-4144
▁Совет	-4145
▁Японии	-4146
▁корреспондента	-4147
12	-4148
Ма	-4149
англ	-4150
вила	-4151
нику	-4152
охра	-4153
рных	-4154
▁ужа	-4155
чиков	-4156
▁арен	-4157
▁вста	-4158
▁непри	-4159
▁самые	-4160
▁концер	-4161
▁осозна	-4162
▁российского	-4163
как	-4164
кли	-4165
тал	-4166
груз	-4167
пить	-4168
▁Пар	-4169
▁Свя	-4170
летия	-4171
▁мона	-4172
▁плат	-4173
ствием	-4174
▁света	-4175
▁экспо	-4176
▁начали	-4177
▁предвари	-4178
▁предполо	-4179
▁физической	-4180
/08	-4181
бай	-4182
дах	-4183
луй	-4184
▁5.	-4185
▁Цен	-4186
▁пти	-4187
ферен	-4188
шении	-4189
▁инте	-4190
▁уточ	-4191
▁фору	-4192
▁Восто	-4193
▁Тогда	-4194
▁пресс	-4195
▁протя	-4196
▁самоу	-4197
▁стара	-4198
▁потеря	-4199
▁фильма	-4200
▁крупней	-4201
▁мировой	-4202
▁премьер	-4203
▁ситуация	-4204
фы	-4205
леку	-4206
▁клю	-4207
▁выво	-4208
▁прод	-4209
валось	-4210
вшиеся	-4211
▁дерев	-4212
▁непре	-4213
▁среды	-4214
36	-4215
мон	-4216
цем	-4217
Евро	-4218
▁точ	-4219
▁проз	-4220
▁трех	-4221
▁улуч	-4222
вшийся	-4223
▁Здесь	-4224
▁оппози	-4225
▁посред	-4226
▁претен	-4227
▁частью	-4228
▁знамени	-4229
▁постано	-4230
▁правительство	-4231
/12	-4232
ver	-4233
гия	-4234
тех	-4235
гать	-4236
мого	-4237
▁меч	-4238
▁Поль	-4239
▁умер	-4240
▁текст	-4241
тельном	-4242
▁голосо	-4243
Здоровье	-4244
▁жителей	-4245
▁никаких	-4246
▁позиции	-4247
▁литератур	-4248
/09	-4249
вар	-4250
дал	-4251
битра	-4252
ждать	-4253
▁рядом	-4254
тельными	-4255
▁корпора	-4256
▁личности	-4257
▁компьютер	-4258
пру	-4259
▁выи	-4260
▁чём	-4261
ально	-4262
лимпи	-4263
нечно	-4264
▁крас	-4265
▁людя	-4266
▁моби	-4267
▁ниже	-4268
▁прой	-4269
▁убий	-4270
▁Казах	-4271
▁понять	-4272
хождения	-4273
▁изделия	-4274
▁поддержа	-4275
▁посмотре	-4276
▁постанов	-4277
31	-4278
лая	-4279
рева	-4280
▁сбо	-4281
▁эфи	-4282
ложен	-4283
щиков	-4284
▁меры	-4285
▁плане	-4286
▁умень	-4287
▁Европе	-4288
▁женщин	-4289
▁обрати	-4290
▁поиско	-4291
▁режисс	-4292
▁уголов	-4293
▁Франции	-4294
▁аналоги	-4295
▁отличие	-4296
▁фестива	-4297
▁Несмотря	-4298
▁пришлось	-4299
▁информацию	-4300
▁социальных	-4301
▁иностранных	-4302
▁организаций	-4303
▁одновременно	-4304
▁использование	-4305
лл	-4306
▁XI	-4307
▁ву	-4308
▁Ещё	-4309
▁Май	-4310
▁Мне	-4311
▁Ско	-4312
▁зло	-4313
▁безу	-4314
▁поря	-4315
▁вовсе	-4316
▁месяц	-4317
▁сосед	-4318
ствовал	-4319
▁версии	-4320
▁колеба	-4321
▁переме	-4322
▁трудно	-4323
▁владель	-4324
▁зависит	-4325
▁последу	-4326
дам	-4327
хма	-4328
жете	-4329
лена	-4330
тием	-4331
▁the	-4332
▁япо	-4333
соеди	-4334
▁свер	-4335
▁подня	-4336
▁соблю	-4337
▁магази	-4338
▁общего	-4339
▁Microsoft	-4340
te	-4341
che	-4342
вича	-4343
ерен	-4344
коми	-4345
мули	-4346
▁тай	-4347
▁мора	-4348
▁печа	-4349
▁скры	-4350
▁Именно	-4351
▁Москов	-4352
▁размер	-4353
▁исполня	-4354
▁прошлом	-4355
▁отношений	-4356
▁обеспечения	-4357
▁эксперимента	-4358
сшта	-4359
▁Гра	-4360
▁ува	-4361
раздо	-4362
стами	-4363
▁Даже	-4364
▁итоге	-4365
▁насто	-4366
вленные	-4367
▁страте	-4368
▁события	-4369
▁продукции	-4370
37	-4371
lo	-4372
/02	-4373
▁сх	-4374
▁Гру	-4375
▁кому	-4376
щаться	-4377
▁середи	-4378
тической	-4379
▁порядка	-4380
▁публика	-4381
▁Частного	-4382
▁христиан	-4383
▁реализации	-4384
yu	-4385
▁23	-4386
тает	-4387
тета	-4388
▁наш	-4389
▁сек	-4390
▁сом	-4391
▁заве	-4392
▁гости	-4393
ведении	-4394
▁правил	-4395
полнение	-4396
▁данного	-4397
▁энергии	-4398
▁движение	-4399
▁интервью	-4400
▁существу	-4401
▁Международ	-4402
▁результатов	-4403
26	-4404
До	-4405
▁195	-4406
▁App	-4407
▁Вас	-4408
жению	-4409
нский	-4410
▁воло	-4411
▁факт	-4412
▁будто	-4413
▁иначе	-4414
▁Послед	-4415
▁наказа	-4416
▁разные	-4417
▁полномо	-4418
▁распоря	-4419
▁спектак	-4420
▁напомина	-4421
vo	-4422
дки	-4423
▁Аб	-4424
жена	-4425
▁You	-4426
▁тяж	-4427
тором	-4428
▁исти	-4429
▁трёх	-4430
▁сайте	-4431
▁выстав	-4432
▁подроб	-4433
▁архитек	-4434
▁выпуска	-4435
▁состоит	-4436
▁предназна	-4437
Га	-4438
вос	-4439
нка	-4440
сро	-4441
▁29	-4442
куда	-4443
рной	-4444
тная	-4445
▁Бар	-4446
висти	-4447
скоре	-4448
стями	-4449
чению	-4450
чется	-4451
▁2005	-4452
▁Суда	-4453
▁газе	-4454
▁идет	-4455
▁пого	-4456
▁союз	-4457
▁Более	-4458
▁выход	-4459
▁прото	-4460
▁данный	-4461
▁первые	-4462
Петербур	-4463
▁причина	-4464
▁восстано	-4465
▁которому	-4466
▁сотрудниче	-4467
▁исключением	-4468
БК	-4469
лья	-4470
думы	-4471
ници	-4472
▁сель	-4473
▁Путин	-4474
▁микро	-4475
▁поезд	-4476
▁компози	-4477
▁построе	-4478
▁получили	-4479
▁предупре	-4480
▁расположен	-4481
вай	-4482
дот	-4483
кер	-4484
▁27	-4485
▁ль	-4486
▁пом	-4487
нести	-4488
▁игры	-4489
сматри	-4490
▁бизне	-4491
▁рынка	-4492
▁чисто	-4493
▁Москва	-4494
▁первых	-4495
▁гораздо	-4496
▁острова	-4497
▁содержи	-4498
▁называют	-4499
▁означает	-4500
Мы	-4501
ус	-4502
дже	-4503
▁Ев	-4504
кому	-4505
ниях	-4506
▁Пол	-4507
▁опы	-4508
▁упа	-4509
▁чёр	-4510
ваясь	-4511
ждает	-4512
тение	-4513
▁маль	-4514
▁разу	-4515
альных	-4516
ниципа	-4517
▁гаран	-4518
фикации	-4519
▁Почему	-4520
▁нашего	-4521
▁первом	-4522
▁привле	-4523
▁районе	-4524
▁правила	-4525
▁принять	-4526
▁местного	-4527
▁проведения	-4528
АО	-4529
per	-4530
вии	-4531
носи	-4532
▁Гос	-4533
▁бед	-4534
вляют	-4535
ниями	-4536
▁НАТО	-4537
▁Особ	-4538
▁аэро	-4539
▁дать	-4540
▁круг	-4541
▁музе	-4542
ждении	-4543
▁всему	-4544
▁энерг	-4545
ждается	-4546
▁задача	-4547
▁преиму	-4548
▁серьез	-4549
▁теории	-4550
▁воспита	-4551
▁свободы	-4552
▁системе	-4553
▁случаев	-4554
▁условий	-4555
▁значения	-4556
▁прошлого	-4557
дру	-4558
нце	-4559
ыду	-4560
▁Жи	-4561
дали	-4562
емся	-4563
тное	-4564
щены	-4565
стера	-4566
теллек	-4567
▁прило	-4568
▁месяца	-4569
▁размеров	-4570
▁отсутствие	-4571
ga	-4572
ряз	-4573
шку	-4574
▁ам	-4575
вшее	-4576
нули	-4577
стых	-4578
▁Там	-4579
▁дни	-4580
дение	-4581
ционе	-4582
▁Бела	-4583
▁Ведь	-4584
▁водо	-4585
▁выбор	-4586
▁домаш	-4587
▁креди	-4588
▁рынке	-4589
▁вырази	-4590
▁миллиар	-4591
▁порядок	-4592
▁товаров	-4593
▁исследований	-4594
2,	-4595
▁m	-4596
пой	-4597
язы	-4598
▁Фа	-4599
дует	-4600
жено	-4601
ится	-4602
тник	-4603
▁Соб	-4604
▁инф	-4605
▁нака	-4606
▁прид	-4607
▁чаще	-4608
▁всеми	-4609
▁затра	-4610
▁ребен	-4611
▁хочет	-4612
▁наличи	-4613
▁главным	-4614
▁максима	-4615
▁потреби	-4616
▁предыду	-4617
▁временем	-4618
▁приходится	-4619
▁значительно	-4620
чо	-4621
рас	-4622
декс	-4623
шают	-4624
шими	-4625
▁ору	-4626
▁фра	-4627
ляции	-4628
стной	-4629
▁жить	-4630
▁опыт	-4631
▁путь	-4632
▁рост	-4633
▁выбра	-4634
▁обору	-4635
▁спорт	-4636
льности	-4637
▁делает	-4638
▁налога	-4639
▁органы	-4640
начально	-4641
▁называется	-4642
▁Великобритании	-4643
тт	-4644
ую	-4645
▁Ша	-4646
▁мэ	-4647
стам	-4648
стана	-4649
терпе	-4650
▁Коро	-4651
▁вещи	-4652
▁упла	-4653
▁далее	-4654
▁оформ	-4655
▁подоз	-4656
▁эволю	-4657
вляются	-4658
▁действу	-4659
▁муниципа	-4660
▁отдельных	-4661
▁произошло	-4662
▁представители	-4663
99	-4664
po	-4665
вере	-4666
кура	-4667
▁Кры	-4668
▁РБК	-4669
▁уро	-4670
равда	-4671
сятся	-4672
▁живу	-4673
ровано	-4674
▁Гриша	-4675
▁акции	-4676
▁Иванов	-4677
▁впечат	-4678
▁заболе	-4679
▁поиска	-4680
▁пользо	-4681
▁сделал	-4682
▁инвести	-4683
▁символи	-4684
▁функции	-4685
▁заинтере	-4686
▁настоящим	-4687
▁Александра	-4688
▁произведения	-4689
11	-4690
80	-4691
ул	-4692
▁c	-4693
▁Их	-4694
▁яр	-4695
▁Нью	-4696
▁бле	-4697
▁доби	-4698
▁ночь	-4699
▁Среди	-4700
▁захва	-4701
▁земли	-4702
▁позже	-4703
▁Белару	-4704
▁класса	-4705
▁недели	-4706
▁выборах	-4707
▁другого	-4708
▁словами	-4709
▁темпера	-4710
▁чемпиона	-4711
▁необходимости	-4712
Ре	-4713
▁/	-4714
США	-4715
сия	-4716
бере	-4717
вели	-4718
това	-4719
ятся	-4720
▁бар	-4721
▁хро	-4722
раиль	-4723
▁любы	-4724
▁цены	-4725
виться	-4726
щением	-4727
▁двумя	-4728
▁колле	-4729
▁корпу	-4730
▁манда	-4731
▁покры	-4732
платель	-4733
▁автора	-4734
▁дороги	-4735
▁изгото	-4736
▁пласти	-4737
▁Национа	-4738
▁площади	-4739
▁создание	-4740
▁основании	-4741
▁преступления	-4742
6%	-4743
вка	-4744
ука	-4745
щими	-4746
▁дис	-4747
▁кило	-4748
▁радо	-4749
жность	-4750
▁Храма	-4751
▁краси	-4752
▁шести	-4753
▁вызыва	-4754
▁другом	-4755
▁Украине	-4756
▁принято	-4757
▁абсолютно	-4758
▁последнее	-4759
▁промышлен	-4760
▁государство	-4761
▁представления	-4762
КС	-4763
вё	-4764
рея	-4765
чён	-4766
▁1,	-4767
град	-4768
ходе	-4769
▁агре	-4770
▁арти	-4771
▁логи	-4772
▁хоте	-4773
оборот	-4774
первых	-4775
▁орган	-4776
▁соеди	-4777
которые	-4778
роваться	-4779
▁сопрово	-4780
▁компаний	-4781
▁провести	-4782
▁множество	-4783
▁находятся	-4784
EW	-4785
Ки	-4786
▁р	-4787
ube	-4788
оны	-4789
▁XX	-4790
▁Чу	-4791
▁зе	-4792
вока	-4793
втра	-4794
ждён	-4795
тивы	-4796
тыми	-4797
город	-4798
ровки	-4799
тябре	-4800
▁води	-4801
▁посо	-4802
▁руку	-4803
▁саха	-4804
ждений	-4805
▁сложи	-4806
▁случи	-4807
▁фанта	-4808
льность	-4809
рованных	-4810
▁телекана	-4811
?»	-4812
id	-4813
ИД	-4814
!..	-4815
ash	-4816
мое	-4817
мум	-4818
пят	-4819
рый	-4820
тет	-4821
чал	-4822
▁Ma	-4823
емая	-4824
рыва	-4825
стую	-4826
▁Тур	-4827
▁охо	-4828
лежит	-4829
сного	-4830
▁нега	-4831
▁паро	-4832
▁буква	-4833
▁воору	-4834
▁Афгани	-4835
▁данной	-4836
▁другое	-4837
▁зарабо	-4838
▁предме	-4839
▁активно	-4840
▁женщина	-4841
▁разгово	-4842
▁участка	-4843
▁Министер	-4844
▁специально	-4845
ТА	-4846
▁“	-4847
дох	-4848
мор	-4849
стях	-4850
▁нач	-4851
:2008	-4852
▁нему	-4853
▁семи	-4854
▁счёт	-4855
меется	-4856
стойчи	-4857
тивное	-4858
▁Чтобы	-4859
▁обнару	-4860
▁подума	-4861
▁месяцев	-4862
▁основной	-4863
▁говорится	-4864
▁настоящей	-4865
▁стоимость	-4866
▁направления	-4867
▁обязанности	-4868
▁обстоятельства	-4869
ko	-4870
up	-4871
.).	-4872
EWS	-4873
вел	-4874
дри	-4875
жным	-4876
кнул	-4877
суль	-4878
▁Кор	-4879
▁сна	-4880
▁тво	-4881
шений	-4882
▁план	-4883
▁часа	-4884
тальян	-4885
тивный	-4886
▁людям	-4887
▁сфере	-4888
▁Потому	-4889
▁динами	-4890
▁здоров	-4891
▁образу	-4892
▁список	-4893
▁упомина	-4894
▁которыми	-4895
▁отметить	-4896
▁состояния	-4897
▁воспринима	-4898
▁строительства	-4899
▁зу	-4900
вери	-4901
жили	-4902
лять	-4903
мана	-4904
▁Вме	-4905
▁ООН	-4906
восто	-4907
снова	-4908
шенко	-4909
▁2004	-4910
▁пропа	-4911
▁хотел	-4912
ческому	-4913
▁Правда	-4914
▁данном	-4915
▁прогно	-4916
▁членов	-4917
тельству	-4918
▁историю	-4919
▁оказался	-4920
▁опублико	-4921
▁сведения	-4922
▁финансов	-4923
▁организация	-4924
ci	-4925
бин	-4926
рный	-4927
▁Рус	-4928
вании	-4929
серва	-4930
▁виду	-4931
▁прио	-4932
▁тури	-4933
сторон	-4934
ченные	-4935
▁держа	-4936
▁какое	-4937
▁сцена	-4938
▁голову	-4939
▁масшта	-4940
▁отстав	-4941
▁чувства	-4942
▁настолько	-4943
▁поддержку	-4944
▁последний	-4945
▁количества	-4946
▁посредством	-4947
Ба	-4948
НО	-4949
▁s	-4950
кол	-4951
тим	-4952
ехал	-4953
нике	-4954
пень	-4955
▁Вам	-4956
▁Кри	-4957
EWSru	-4958
стные	-4959
части	-4960
▁вече	-4961
▁впра	-4962
▁жало	-4963
▁моно	-4964
▁начи	-4965
▁теку	-4966
рованы	-4967
ходили	-4968
▁Андер	-4969
▁вести	-4970
▁пенси	-4971
▁рынок	-4972
▁слуша	-4973
▁NEWSru	-4974
▁аппара	-4975
▁первым	-4976
▁закончи	-4977
правления	-4978
▁политики	-4979
▁результат	-4980
▁государственных	-4981
ss	-4982
лат	-4983
лож	-4984
пан	-4985
горо	-4986
клон	-4987
рном	-4988
▁Цер	-4989
▁шан	-4990
шению	-4991
▁Кана	-4992
▁небе	-4993
▁какая	-4994
▁обеща	-4995
▁серии	-4996
▁судом	-4997
▁школы	-4998
▁Австра	-4999
▁мнение	-5000
▁народа	-5001
▁регули	-5002
▁история	-5003
▁процеду	-5004
):	-5005
ge	-5006
ts	-5007
ТИ	-5008
▁=	-5009
Кон	-5010
рхи	-5011
сме	-5012
▁II	-5013
▁см	-5014
водя	-5015
жела	-5016
ссов	-5017
▁Наи	-5018
▁мыш	-5019
▁адре	-5020
▁вело	-5021
▁труд	-5022
графия	-5023
▁никак	-5024
▁позна	-5025
▁покуп	-5026
▁защиты	-5027
▁кризис	-5028
▁неприя	-5029
▁священ	-5030
ствовали	-5031
▁Кодекса	-5032
▁кокаина	-5033
▁недавно	-5034
▁неожида	-5035
▁профессо	-5036
▁искусство	-5037
5-	-5038
мос	-5039
тную	-5040
чена	-5041
▁джа	-5042
▁авиа	-5043
▁длин	-5044
▁нами	-5045
▁преж	-5046
▁санк	-5047
довать	-5048
▁Возмо	-5049
▁своем	-5050
▁стати	-5051
зование	-5052
ровании	-5053
▁пункта	-5054
▁Конечно	-5055
▁заключа	-5056
▁команды	-5057
▁область	-5058
▁следова	-5059
▁интеллек	-5060
▁общество	-5061
▁стоимости	-5062
▁жительства	-5063
▁современной	-5064
▁американских	-5065
▁используется	-5066
▁соответственно	-5067
iz	-5068
Ча	-5069
one	-5070
pre	-5071
ань	-5072
сль	-5073
енти	-5074
мену	-5075
теше	-5076
▁Ита	-5077
▁ген	-5078
▁жан	-5079
▁ока	-5080
ходил	-5081
▁здра	-5082
▁отме	-5083
▁тема	-5084
бление	-5085
валась	-5086
▁диабе	-5087
▁отече	-5088
▁Михаил	-5089
▁возгла	-5090
▁первое	-5091
▁писать	-5092
▁помощь	-5093
▁бюджета	-5094
▁коммента	-5095
▁сегодняш	-5096
лад	-5097
ллю	-5098
шил	-5099
▁Дже	-5100
▁Яро	-5101
▁ава	-5102
▁ассо	-5103
▁кафе	-5104
▁Серге	-5105
▁думаю	-5106
▁земле	-5107
▁могла	-5108
▁разве	-5109
▁группе	-5110
▁транспорт	-5111
▁документов	-5112
▁руководство	-5113
▁представителей	-5114
90	-5115
эль	-5116
▁Це	-5117
▁ие	-5118
нтов	-5119
▁рок	-5120
довой	-5121
ницей	-5122
тения	-5123
▁Один	-5124
▁гром	-5125
▁нема	-5126
▁туда	-5127
▁Можно	-5128
▁какую	-5129
▁солда	-5130
▁неделю	-5131
▁района	-5132
регистри	-5133
▁воскрес	-5134
▁привлека	-5135
▁интернете	-5136
▁преподава	-5137
▁налогоплатель	-5138
va	-5139
Са	-5140
ур	-5141
лье	-5142
бами	-5143
зами	-5144
нены	-5145
пред	-5146
▁Мно	-5147
▁Суд	-5148
▁Уже	-5149
▁зам	-5150
1%83%	-5151
видно	-5152
менти	-5153
▁инсу	-5154
▁исче	-5155
▁тела	-5156
альные	-5157
ющийся	-5158
▁снима	-5159
▁Верхов	-5160
▁предъя	-5161
▁Игнатий	-5162
▁выборов	-5163
▁сторона	-5164
▁Беларусь	-5165
▁Спасителя	-5166
▁получения	-5167
▁психологи	-5168
▁функциона	-5169
▁официально	-5170
Рос	-5171
оло	-5172
▁iP	-5173
▁Ман	-5174
▁опе	-5175
▁сде	-5176
▁фир	-5177
терна	-5178
▁2014	-5179
▁брат	-5180
▁избе	-5181
▁паль	-5182
▁сожа	-5183
шается	-5184
▁Храме	-5185
▁валют	-5186
▁непро	-5187
▁таком	-5188
▁уника	-5189
▁числа	-5190
ционным	-5191
▁Белору	-5192
▁взгляд	-5193
▁оплаты	-5194
▁спокой	-5195
▁обслужи	-5196
▁понятно	-5197
▁русской	-5198
▁катастро	-5199
▁получила	-5200
▁названием	-5201
▁регистрации	-5202
▁ответственность	-5203
ig	-5204
ine	-5205
чью	-5206
▁Ты	-5207
▁др	-5208
груп	-5209
жная	-5210
рачи	-5211
▁Ген	-5212
▁Рай	-5213
жется	-5214
нется	-5215
▁визи	-5216
▁газо	-5217
▁глоб	-5218
▁испы	-5219
▁одоб	-5220
▁отца	-5221
▁тему	-5222
альный	-5223
нением	-5224
▁Запад	-5225
▁брата	-5226
▁целях	-5227
▁Москву	-5228
▁знаете	-5229
▁русского	-5230
▁отношению	-5231
▁структуры	-5232
▁обязательно	-5233
45	-5234
9.	-5235
96	-5236
ct	-5237
ha	-5238
кл	-5239
сл	-5240
ана	-5241
льп	-5242
пле	-5243
▁Ад	-5244
дьми	-5245
щено	-5246
▁Чер	-5247
▁опа	-5248
щихся	-5249
▁дево	-5250
▁зака	-5251
▁иной	-5252
▁сове	-5253
▁учёт	-5254
▁Apple	-5255
▁новое	-5256
▁вправе	-5257
▁издели	-5258
▁кольца	-5259
▁попада	-5260
▁История	-5261
▁влияние	-5262
▁времена	-5263
▁главное	-5264
▁предмет	-5265
▁считать	-5266
ступление	-5267
▁присоеди	-5268
▁последних	-5269
1,	-5270
88	-5271
ng	-5272
йн	-5273
▁f	-5274
Йор	-5275
бет	-5276
гар	-5277
кипа	-5278
▁бук	-5279
▁нер	-5280
нулся	-5281
стров	-5282
▁боро	-5283
▁моей	-5284
▁отец	-5285
▁поля	-5286
▁конфу	-5287
▁театр	-5288
▁крайне	-5289
▁обмена	-5290
▁сравни	-5291
▁Алексей	-5292
▁событий	-5293
▁экологи	-5294
тического	-5295
▁вопросов	-5296
▁насколько	-5297
▁оказалось	-5298
▁сотрудников	-5299
бир	-5300
кор	-5301
бера	-5302
бина	-5303
рика	-5304
▁выя	-5305
:2015	-5306
деква	-5307
нными	-5308
вающих	-5309
визион	-5310
спекти	-5311
частли	-5312
▁книга	-5313
▁книге	-5314
▁новую	-5315
▁песни	-5316
▁писал	-5317
▁посла	-5318
▁молеку	-5319
▁намере	-5320
▁памяти	-5321
▁центре	-5322
▁арбитра	-5323
▁главный	-5324
▁отношение	-5325
▁считается	-5326
▁зарегистри	-5327
▁характеризу	-5328
рат	-5329
реа	-5330
шке	-5331
днев	-5332
нном	-5333
▁Лон	-5334
▁сет	-5335
пенно	-5336
твори	-5337
щению	-5338
▁Оста	-5339
▁верх	-5340
▁клуб	-5341
▁тело	-5342
▁угле	-5343
▁Глава	-5344
▁акций	-5345
▁вышел	-5346
▁редко	-5347
▁связь	-5348
▁бывает	-5349
▁каждой	-5350
▁началь	-5351
▁службы	-5352
▁подгото	-5353
▁столицы	-5354
▁Интернет	-5355
▁внимания	-5356
▁никакого	-5357
▁писатель	-5358
▁программа	-5359
▁материалов	-5360
▁обеспечить	-5361
▁рассказыва	-5362
»),	-5363
мию	-5364
▁Re	-5365
▁St	-5366
▁Им	-5367
вшую	-5368
суди	-5369
▁Дан	-5370
▁Кан	-5371
▁Три	-5372
▁мои	-5373
▁уди	-5374
ехать	-5375
▁моду	-5376
▁пита	-5377
зовать	-5378
литика	-5379
нилось	-5380
▁Госпо	-5381
▁Может	-5382
▁актов	-5383
▁преде	-5384
▁судна	-5385
▁торго	-5386
▁удиви	-5387
новения	-5388
▁власть	-5389
▁машины	-5390
▁местах	-5391
▁счасть	-5392
▁уведом	-5393
▁электри	-5394
▁приводит	-5395
▁колебаний	-5396
▁конфуциан	-5397
▁программу	-5398
▁земельного	-5399
▁общественных	-5400
▁исключительно	-5401
▁общественного	-5402
66	-5403
Пу	-5404
фак	-5405
Tube	-5406
рные	-5407
ряду	-5408
▁иск	-5409
рович	-5410
такте	-5411
▁двой	-5412
▁девя	-5413
▁лежа	-5414
▁носи	-5415
▁пишу	-5416
▁пояс	-5417
▁фина	-5418
против	-5419
▁Санкт	-5420
▁адрес	-5421
▁астро	-5422
▁медиа	-5423
▁науки	-5424
▁разде	-5425
Новости	-5426
надцати	-5427
▁десять	-5428
▁людьми	-5429
▁мастер	-5430
▁неодно	-5431
▁природ	-5432
▁своему	-5433
▁смогут	-5434
▁страна	-5435
▁Медведев	-5436
▁договора	-5437
▁обществе	-5438
▁останови	-5439
▁принятия	-5440
▁поведения	-5441
▁справедли	-5442
▁Федерального	-5443
55	-5444
8.	-5445
vy	-5446
ут	-5447
ваю	-5448
зой	-5449
—19	-5450
дыха	-5451
енье	-5452
кров	-5453
▁гля	-5454
▁жив	-5455
:2014	-5456
мысле	-5457
новен	-5458
стить	-5459
▁Авто	-5460
▁делу	-5461
▁хочу	-5462
▁явно	-5463
недель	-5464
▁Китая	-5465
▁цвета	-5466
▁Центра	-5467
▁алкого	-5468
▁гумани	-5469
▁модель	-5470
▁очевид	-5471
▁текста	-5472
хождение	-5473
▁наоборот	-5474
▁заседании	-5475
▁изменений	-5476
▁ограничен	-5477
▁разрабаты	-5478
BF	-5479
da	-5480
ran	-5481
вия	-5482
зья	-5483
тую	-5484
дает	-5485
един	-5486
сных	-5487
стры	-5488
▁Бор	-5489
▁2000	-5490
▁двор	-5491
▁захо	-5492
▁иные	-5493
▁услы	-5494
▁абсур	-5495
▁запро	-5496
▁лидер	-5497
▁плате	-5498
▁погиб	-5499
▁шесть	-5500
▁Второй	-5501
▁записи	-5502
▁метров	-5503
▁портре	-5504
▁смотри	-5505
▁YouTube	-5506
▁элемента	-5507
▁Казахстан	-5508
▁Некоторые	-5509
▁рассказал	-5510
▁требований	-5511
▁фактически	-5512
Ком	-5513
зме	-5514
ждая	-5515
▁Мон	-5516
▁Экс	-5517
▁меж	-5518
▁опро	-5519
▁отка	-5520
катери	-5521
▁герои	-5522
▁решил	-5523
▁строе	-5524
▁активи	-5525
▁выигра	-5526
▁контен	-5527
▁назвал	-5528
▁премии	-5529
▁стреми	-5530
▁тысячи	-5531
▁размере	-5532
▁составе	-5533
▁основных	-5534
▁сообщения	-5535
▁ответственности	-5536
3,	-5537
ент	-5538
нца	-5539
фей	-5540
чке	-5541
щик	-5542
▁IS	-5543
жают	-5544
лега	-5545
▁Дей	-5546
▁ибо	-5547
▁опо	-5548
▁сви	-5549
локон	-5550
нских	-5551
приня	-5552
▁Пари	-5553
▁Силь	-5554
▁обре	-5555
▁фами	-5556
▁хуже	-5557
говари	-5558
льному	-5559
▁Остер	-5560
▁срока	-5561
▁супру	-5562
▁сыгра	-5563
▁топли	-5564
▁кстати	-5565
▁начало	-5566
▁пересе	-5567
▁допуска	-5568
▁итальян	-5569
▁станции	-5570
▁участия	-5571
▁традиции	-5572
▁следующие	-5573
▁человеком	-5574
21	-5575
48	-5576
ВА	-5577
МС	-5578
НК	-5579
зиру	-5580
зыка	-5581
нуне	-5582
▁Шта	-5583
▁бал	-5584
▁оба	-5585
▁яко	-5586
долго	-5587
риалы	-5588
ристо	-5589
▁Вене	-5590
▁добы	-5591
▁заво	-5592
▁инду	-5593
▁исте	-5594
▁орби	-5595
▁полё	-5596
▁теря	-5597
▁тяжё	-5598
▁атмос	-5599
▁важно	-5600
▁корот	-5601
▁метро	-5602
▁описы	-5603
▁контек	-5604
▁пережи	-5605
▁постра	-5606
▁стекло	-5607
▁вариант	-5608
▁высказа	-5609
▁границы	-5610
▁хочется	-5611
▁конферен	-5612
▁относится	-5613
▁удовлетво	-5614
▁литературы	-5615
▁применения	-5616
▁российский	-5617
▁особенности	-5618
kin	-5619
rom	-5620
чия	-5621
змом	-5622
кали	-5623
лыми	-5624
нула	-5625
▁500	-5626
▁Рей	-5627
▁мяг	-5628
логов	-5629
право	-5630
▁Кали	-5631
▁зато	-5632
▁лице	-5633
▁опла	-5634
ведены	-5635
тивная	-5636
▁групп	-5637
▁пасса	-5638
▁укреп	-5639
ступить	-5640
▁Англии	-5641
▁аудито	-5642
▁отдель	-5643
▁оценки	-5644
▁спраши	-5645
▁издания	-5646
▁идеологи	-5647
▁интересы	-5648
▁коммуника	-5649
▁информация	-5650
▁многочисле	-5651
▁содержания	-5652
▁ограничения	-5653
▁современного	-5654
▁проектирования	-5655
76	-5656
тю	-5657
жки	-5658
кур	-5659
рик	-5660
▁ид	-5661
▁або	-5662
▁акт	-5663
▁дал	-5664
Наука	-5665
▁Кита	-5666
▁идеи	-5667
▁ряда	-5668
▁сочи	-5669
вестно	-5670
вшейся	-5671
послед	-5672
▁видно	-5673
▁дипло	-5674
▁добро	-5675
▁исход	-5676
▁машин	-5677
▁порта	-5678
▁среду	-5679
▁превос	-5680
▁Толокон	-5681
▁сначала	-5682
▁статьей	-5683
▁чувство	-5684
▁начинает	-5685
▁телевиде	-5686
▁интересно	-5687
▁получается	-5688
НИ	-5689
эм	-5690
kov	-5691
лку	-5692
оти	-5693
верь	-5694
голь	-5695
сток	-5696
тков	-5697
▁000	-5698
▁Нор	-5699
▁лиш	-5700
дного	-5701
триар	-5702
▁бого	-5703
▁осве	-5704
▁секу	-5705
▁скла	-5706
тности	-5707
▁акаде	-5708
▁двига	-5709
▁зачем	-5710
▁книгу	-5711
▁север	-5712
▁специ	-5713
▁хотят	-5714
▁импера	-5715
▁северо	-5716
▁сложно	-5717
▁читать	-5718
Политика	-5719
▁сказала	-5720
▁действие	-5721
▁остается	-5722
▁остаётся	-5723
▁студентов	-5724
▁протяжении	-5725
▁устройства	-5726
▁характеристи	-5727
ols	-5728
sya	-5729
вла	-5730
лаг	-5731
пля	-5732
цеп	-5733
▁Же	-5734
▁мел	-5735
▁реа	-5736
новой	-5737
совет	-5738
станов	-5739
▁леген	-5740
▁мисси	-5741
▁страш	-5742
▁выборы	-5743
▁торгов	-5744
вершенно	-5745
▁анализа	-5746
▁крайней	-5747
▁крупных	-5748
▁требует	-5749
▁возраста	-5750
▁продолжи	-5751
▁возникает	-5752
▁родителей	-5753
▁характера	-5754
▁переговоры	-5755
▁оказывается	-5756
▁представитель	-5757
ah	-5758
bo	-5759
:10	-5760
дие	-5761
тье	-5762
чим	-5763
емым	-5764
купа	-5765
мато	-5766
нную	-5767
рубе	-5768
сные	-5769
стые	-5770
▁Ком	-5771
▁Сол	-5772
▁кле	-5773
ждают	-5774
стане	-5775
ствий	-5776
▁виды	-5777
▁инже	-5778
▁сути	-5779
▁тюрь	-5780
▁Южной	-5781
▁армии	-5782
▁заказ	-5783
▁онлай	-5784
▁семье	-5785
▁Первый	-5786
▁органа	-5787
▁причём	-5788
▁большие	-5789
▁наличие	-5790
▁написал	-5791
▁паровозов	-5792
▁следующий	-5793
Бо	-5794
:19	-5795
?..	-5796
гип	-5797
рец	-5798
▁7.	-5799
▁ев	-5800
йтед	-5801
сила	-5802
▁Оте	-5803
▁фай	-5804
https	-5805
▁Испо	-5806
▁втор	-5807
▁кома	-5808
▁пала	-5809
▁подъ	-5810
▁экра	-5811
ментом	-5812
▁Китай	-5813
▁взять	-5814
▁выпла	-5815
▁лицом	-5816
▁суббо	-5817
▁такую	-5818
▁талан	-5819
▁трево	-5820
▁улице	-5821
▁музыки	-5822
▁полной	-5823
▁объявил	-5824
▁связано	-5825
▁Андерсон	-5826
▁контроля	-5827
▁отмечает	-5828
▁смотреть	-5829
▁программи	-5830
▁функциони	-5831
джи	-5832
диа	-5833
кру	-5834
тку	-5835
юри	-5836
голо	-5837
▁300	-5838
▁Оль	-5839
▁Сам	-5840
▁улы	-5841
жнему	-5842
логия	-5843
▁Поли	-5844
▁зара	-5845
▁целе	-5846
вторых	-5847
ствова	-5848
ционно	-5849
▁Ранее	-5850
▁смысл	-5851
▁стаби	-5852
▁увели	-5853
зирован	-5854
строить	-5855
▁какого	-5856
▁письма	-5857
▁скульп	-5858
▁сможет	-5859
▁тенден	-5860
▁выпусти	-5861
▁налогов	-5862
▁финанси	-5863
▁вопросам	-5864
▁говорили	-5865
▁директор	-5866
▁ограничи	-5867
▁принципи	-5868
▁оказались	-5869
▁российские	-5870
7-	-5871
вку	-5872
оби	-5873
фов	-5874
▁Дэ	-5875
▁ТВ	-5876
емое	-5877
ланд	-5878
мера	-5879
▁Еще	-5880
▁Лео	-5881
▁сда	-5882
порта	-5883
▁Пока	-5884
▁попе	-5885
воохра	-5886
кварти	-5887
▁Очень	-5888
▁вечер	-5889
▁новая	-5890
▁путеше	-5891
▁сочета	-5892
▁широко	-5893
зировать	-5894
тическим	-5895
▁исполне	-5896
▁кризиса	-5897
▁оригина	-5898
▁пассажи	-5899
▁позволи	-5900
▁расстоя	-5901
▁Возможно	-5902
▁структур	-5903
▁сравнению	-5904
▁литературе	-5905
▁постепенно	-5906
23	-5907
_(	-5908
ers	-5909
дли	-5910
▁иг	-5911
вому	-5912
гали	-5913
жели	-5914
тесь	-5915
щена	-5916
▁Иго	-5917
Интер	-5918
ковых	-5919
▁Марк	-5920
▁пару	-5921
▁ясно	-5922
кратно	-5923
лимпий	-5924
▁беско	-5925
▁ликви	-5926
▁отвер	-5927
▁сюжет	-5928
▁фонда	-5929
▁завтра	-5930
▁коммер	-5931
▁смерть	-5932
▁цивили	-5933
▁обороны	-5934
▁площадь	-5935
▁русском	-5936
▁ситуацию	-5937
▁помещений	-5938
▁различные	-5939
▁заниматься	-5940
▁социального	-5941
▁политической	-5942
49	-5943
fo	-5944
Да	-5945
бий	-5946
жим	-5947
мей	-5948
▁An	-5949
куль	-5950
редо	-5951
рили	-5952
сипе	-5953
тарь	-5954
▁Бен	-5955
▁ано	-5956
▁вес	-5957
цевич	-5958
▁2003	-5959
▁гене	-5960
▁голу	-5961
▁знал	-5962
▁пожи	-5963
найтед	-5964
ровала	-5965
▁восем	-5966
▁каком	-5967
▁клуба	-5968
▁готовы	-5969
▁обрабо	-5970
▁Россией	-5971
▁договор	-5972
▁картины	-5973
▁настрое	-5974
▁понимаю	-5975
▁понятия	-5976
▁Петербур	-5977
▁человеку	-5978
▁организова	-5979
▁параметров	-5980
▁окончательно	-5981
▁соответствует	-5982
вёл	-5983
дне	-5984
зий	-5985
нит	-5986
пти	-5987
реи	-5988
чая	-5989
шко	-5990
обла	-5991
циям	-5992
шали	-5993
▁XIX	-5994
▁Пла	-5995
▁гри	-5996
▁зве	-5997
▁сын	-5998
▁час	-5999
нятно	-6000
▁2002	-6001
▁Чере	-6002
▁Юрий	-6003
▁выго	-6004
▁запу	-6005
▁наси	-6006
▁прос	-6007
▁сеть	-6008
Европа	-6009
вающий	-6010
никова	-6011
▁Порфи	-6012
▁задач	-6013
▁знать	-6014
▁класс	-6015
▁одино	-6016
▁преда	-6017
муцевич	-6018
ношения	-6019
▁журнал	-6020
▁методы	-6021
▁причин	-6022
тельстве	-6023
▁Америки	-6024
▁журнала	-6025
▁рождения	-6026
▁Представи	-6027
▁заявления	-6028
▁учреждения	-6029
▁предложение	-6030
▁иностранного	-6031
▁эксплуатации	-6032
▁осуществляется	-6033
70	-6034
ie	-6035
»:	-6036
ПК	-6037
▁Ги	-6038
кина	-6039
▁моя	-6040
▁цар	-6041
благо	-6042
зацию	-6043
менте	-6044
ровер	-6045
▁газа	-6046
▁вслед	-6047
▁психи	-6048
▁сигна	-6049
▁трудо	-6050
▁честь	-6051
ционное	-6052
▁обозна	-6053
▁первая	-6054
▁больших	-6055
▁разговор	-6056
▁эксперти	-6057
▁эмоциона	-6058
▁высказыва	-6059
▁интересов	-6060
▁экспертов	-6061
▁законопроек	-6062
▁предприятия	-6063
ГУ	-6064
гая	-6065
дея	-6066
дию	-6067
щал	-6068
▁2-	-6069
▁Ху	-6070
▁оз	-6071
люби	-6072
▁Com	-6073
▁Чем	-6074
▁ого	-6075
вость	-6076
метри	-6077
поста	-6078
▁вось	-6079
▁жили	-6080
▁резо	-6081
▁речи	-6082
дленно	-6083
зербай	-6084
рована	-6085
чества	-6086
читать	-6087
▁Потом	-6088
▁Татья	-6089
▁видел	-6090
▁голос	-6091
▁оправ	-6092
▁упомя	-6093
▁услуг	-6094
▁Евросо	-6095
▁Кстати	-6096
▁партий	-6097
▁помочь	-6098
▁средне	-6099
▁статус	-6100
▁частей	-6101
▁бизнеса	-6102
▁будущем	-6103
▁минимум	-6104
▁позднее	-6105
▁регуляр	-6106
▁нарушения	-6107
▁относятся	-6108
▁перспекти	-6109
▁совместно	-6110
▁представить	-6111
▁определяется	-6112
▁самоуправления	-6113
▁непосредственно	-6114
жь	-6115
_(%	-6116
тли	-6117
слов	-6118
тном	-6119
филь	-6120
▁вру	-6121
▁сне	-6122
▁Рабо	-6123
▁мать	-6124
▁хими	-6125
ждению	-6126
женных	-6127
тивным	-6128
▁Самоа	-6129
▁новым	-6130
▁самая	-6131
▁якобы	-6132
▁газеты	-6133
▁методи	-6134
▁попыта	-6135
▁сделки	-6136
▁сканда	-6137
прежнему	-6138
тическая	-6139
▁замести	-6140
▁примеру	-6141
▁русских	-6142
зербайджа	-6143
▁пределах	-6144
▁государств	-6145
▁собирается	-6146
▁содержание	-6147
▁последствия	-6148
:11	-6149
:17	-6150
III	-6151
вят	-6152
пто	-6153
▁ПО	-6154
сная	-6155
чики	-6156
▁Гор	-6157
▁Тут	-6158
▁био	-6159
▁боя	-6160
▁ино	-6161
парта	-6162
стный	-6163
теров	-6164
тными	-6165
▁Крем	-6166
▁Стив	-6167
▁бело	-6168
▁воро	-6169
▁зави	-6170
▁през	-6171
ленной	-6172
менить	-6173
▁особы	-6174
▁увиде	-6175
▁усили	-6176
▁успеш	-6177
▁экипа	-6178
▁Италии	-6179
▁вероят	-6180
▁оружия	-6181
▁большая	-6182
▁военных	-6183
▁впрочем	-6184
▁пожалуй	-6185
▁мандалор	-6186
▁стратеги	-6187
▁эксперты	-6188
▁остальные	-6189
▁сожалению	-6190
▁собственно	-6191
▁университета	-6192
▁чрезвычайного	-6193
46	-6194
Ми	-6195
Му	-6196
.),	-6197
бви	-6198
дим	-6199
раб	-6200
вето	-6201
испо	-6202
полу	-6203
сист	-6204
▁Мер	-6205
сован	-6206
▁Хоро	-6207
▁душе	-6208
▁марш	-6209
▁соци	-6210
бления	-6211
ленных	-6212
ниться	-6213
▁возбу	-6214
▁вчера	-6215
▁ключе	-6216
▁магни	-6217
▁награ	-6218
▁роста	-6219
рованию	-6220
▁Интере	-6221
▁адвока	-6222
▁войска	-6223
▁раскры	-6224
▁биологи	-6225
▁большое	-6226
▁второго	-6227
▁километ	-6228
▁научных	-6229
▁потребо	-6230
▁ребенка	-6231
▁Северной	-6232
▁возрасте	-6233
▁органами	-6234
▁позволит	-6235
▁проходит	-6236
▁энергети	-6237
▁технологий	-6238
▁мероприятия	-6239
th	-6240
Па	-6241
:21	-6242
лон	-6243
сив	-6244
цах	-6245
▁0,	-6246
▁70	-6247
скус	-6248
сный	-6249
тила	-6250
▁Без	-6251
▁пье	-6252
rossi	-6253
вшими	-6254
дации	-6255
компа	-6256
тивов	-6257
▁доли	-6258
▁зале	-6259
▁имел	-6260
▁кано	-6261
▁ремо	-6262
ордина	-6263
чество	-6264
▁масса	-6265
▁выбира	-6266
▁начать	-6267
▁прогре	-6268
▁страну	-6269
▁текстов	-6270
▁террори	-6271
▁вспомина	-6272
▁контроль	-6273
▁основные	-6274
▁рассчиты	-6275
▁хотелось	-6276
▁категории	-6277
▁здравоохра	-6278
▁воздействия	-6279
▁минимальных	-6280
▁формирования	-6281
Эк	-6282
леб	-6283
лер	-6284
рые	-6285
▁лё	-6286
гают	-6287
кель	-6288
тинг	-6289
феры	-6290
формы	-6291
▁Pist	-6292
▁жест	-6293
▁идей	-6294
▁идти	-6295
▁море	-6296
▁напи	-6297
▁чему	-6298
тников	-6299
▁ведом	-6300
▁выдви	-6301
▁резер	-6302
▁сбора	-6303
▁торже	-6304
▁холод	-6305
▁Гражда	-6306
▁Многие	-6307
▁борьбы	-6308
▁видимо	-6309
▁телефо	-6310
атериалы	-6311
▁Pistols	-6312
▁встречи	-6313
▁подлежа	-6314
▁социали	-6315
▁спросил	-6316
▁родствен	-6317
▁середине	-6318
▁предложил	-6319
последствии	-6320
▁последнего	-6321
▁определения	-6322
33	-6323
me	-6324
пя	-6325
:23	-6326
жие	-6327
одо	-6328
ьми	-6329
▁1-	-6330
▁60	-6331
▁Фу	-6332
деся	-6333
защи	-6334
ниям	-6335
хина	-6336
▁Ира	-6337
▁Спе	-6338
▁вле	-6339
▁сты	-6340
декса	-6341
дится	-6342
листи	-6343
педии	-6344
скопа	-6345
▁Ваши	-6346
▁Одна	-6347
▁идея	-6348
▁поза	-6349
▁трак	-6350
▁чтоб	-6351
разуме	-6352
тность	-6353
щаются	-6354
▁землю	-6355
▁квали	-6356
▁любом	-6357
▁нормы	-6358
▁спустя	-6359
▁статей	-6360
▁сформи	-6361
▁Екатери	-6362
▁большим	-6363
▁вечером	-6364
▁девушек	-6365
▁ориенти	-6366
▁состава	-6367
▁счастли	-6368
▁казалось	-6369
▁причиной	-6370
▁документы	-6371
▁перечисле	-6372
▁субъектов	-6373
▁достижения	-6374
▁заключения	-6375
▁воскресенье	-6376
▁образование	-6377
▁существования	-6378
4,	-6379
56	-6380
BN	-6381
лео	-6382
▁Мэ	-6383
▁Фо	-6384
▁Хе	-6385
▁Ян	-6386
...»	-6387
дные	-6388
паде	-6389
▁Sex	-6390
▁МКС	-6391
▁Слу	-6392
▁Даль	-6393
▁глаз	-6394
▁иллю	-6395
стреми	-6396
ченный	-6397
▁выста	-6398
▁нрави	-6399
▁пусть	-6400
▁путем	-6401
министр	-6402
▁Путина	-6403
▁другую	-6404
▁испыты	-6405
▁концов	-6406
▁номина	-6407
▁Европей	-6408
▁большую	-6409
▁достоин	-6410
▁паралле	-6411
▁письмен	-6412
▁будущего	-6413
▁осталось	-6414
▁проектов	-6415
▁ресурсов	-6416
▁Владимира	-6417
▁парламент	-6418
▁опубликова	-6419
▁реальности	-6420
▁социальные	-6421
▁собственной	-6422
ber	-6423
las	-6424
дио	-6425
дка	-6426
зни	-6427
тке	-6428
▁80	-6429
▁Ше	-6430
вона	-6431
езде	-6432
ниги	-6433
ссию	-6434
▁Гар	-6435
▁зар	-6436
вокуп	-6437
ловек	-6438
понен	-6439
▁ISBN	-6440
▁дета	-6441
▁жена	-6442
▁сайт	-6443
▁серд	-6444
ведено	-6445
вшаяся	-6446
делить	-6447
единён	-6448
словно	-6449
торами	-6450
▁Благо	-6451
▁впере	-6452
▁домой	-6453
▁новом	-6454
▁прису	-6455
▁Андрей	-6456
▁Закона	-6457
▁друзья	-6458
▁итогам	-6459
▁одному	-6460
▁городов	-6461
▁девушки	-6462
▁доступа	-6463
▁местных	-6464
▁монасты	-6465
▁Самуцевич	-6466
▁взаимосвя	-6467
▁материалы	-6468
▁нарушение	-6469
▁начинается	-6470
Бе	-6471
СТ	-6472
:18	-6473
дных	-6474
кает	-6475
мыми	-6476
теле	-6477
▁апо	-6478
▁кем	-6479
▁ков	-6480
ation	-6481
вится	-6482
денти	-6483
кости	-6484
метим	-6485
тация	-6486
товой	-6487
▁карь	-6488
▁кров	-6489
▁небо	-6490
летний	-6491
ющейся	-6492
▁мысль	-6493
▁пусты	-6494
▁стихи	-6495
▁теоре	-6496
▁целей	-6497
▁центр	-6498
▁лидера	-6499
▁помимо	-6500
▁словно	-6501
▁незакон	-6502
▁Кодексом	-6503
▁велосипе	-6504
▁приблизи	-6505
▁структура	-6506
▁направлении	-6507
▁поверхности	-6508
▁президентом	-6509
▁существенно	-6510
▁национальной	-6511
▁представление	-6512
▁самостоятельно	-6513
74	-6514
79	-6515
Ли	-6516
▁b	-6517
дре	-6518
пел	-6519
цом	-6520
▁Шу	-6521
▁аф	-6522
бить	-6523
вига	-6524
спор	-6525
чили	-6526
▁зво	-6527
▁изо	-6528
лакти	-6529
▁Наде	-6530
▁Полу	-6531
▁горя	-6532
▁лока	-6533
▁мани	-6534
дотвра	-6535
руются	-6536
▁альбо	-6537
▁взрос	-6538
▁глуби	-6539
▁метод	-6540
▁незна	-6541
▁нужны	-6542
▁порно	-6543
▁старо	-6544
▁Вместе	-6545
▁достой	-6546
▁законы	-6547
▁любовь	-6548
▁основы	-6549
▁победи	-6550
▁попечи	-6551
▁режима	-6552
рождения	-6553
▁никакой	-6554
▁одинако	-6555
▁повторя	-6556
▁сделали	-6557
▁вероятно	-6558
▁граждане	-6559
▁живописи	-6560
▁понедель	-6561
▁скорость	-6562
▁принимать	-6563
▁связанных	-6564
▁потенциаль	-6565
▁конструкции	-6566
▁противополо	-6567
▁политических	-6568
▁строительство	-6569
13	-6570
▁;	-6571
:16	-6572
ile	-6573
Это	-6574
для	-6575
рюк	-6576
ъяс	-6577
служ	-6578
тров	-6579
щают	-6580
нился	-6581
тился	-6582
▁Афри	-6583
▁Ново	-6584
▁веке	-6585
▁зача	-6586
▁реша	-6587
▁сете	-6588
▁Анато	-6589
▁возму	-6590
▁графи	-6591
▁любви	-6592
▁массы	-6593
▁нужда	-6594
▁прием	-6595
▁разум	-6596
▁турни	-6597
фициаль	-6598
▁Экспер	-6599
▁аресто	-6600
▁втором	-6601
▁группу	-6602
▁записа	-6603
▁можете	-6604
▁провин	-6605
▁термин	-6606
▁заметил	-6607
▁россиян	-6608
▁Американ	-6609
▁наверное	-6610
▁привести	-6611
▁содержит	-6612
▁основания	-6613
▁поведение	-6614
▁разработки	-6615
▁федерального	-6616
ia	-6617
Ме	-6618
мм	-6619
лум	-6620
мол	-6621
муж	-6622
мье	-6623
пар	-6624
чув	-6625
▁2,	-6626
▁КН	-6627
ваем	-6628
рост	-6629
чали	-6630
▁Роб	-6631
▁Сов	-6632
▁дво	-6633
ющему	-6634
▁едва	-6635
▁игру	-6636
▁каби	-6637
▁миру	-6638
▁ноги	-6639
▁пило	-6640
▁шатт	-6641
кторов	-6642
▁война	-6643
▁знают	-6644
▁можем	-6645
▁нефти	-6646
▁синте	-6647
ложения	-6648
▁жизнен	-6649
▁пришли	-6650
▁решили	-6651
▁совета	-6652
американ	-6653
▁главных	-6654
▁полиции	-6655
▁увидеть	-6656
тельностью	-6657
▁процентов	-6658
▁состоится	-6659
▁элементов	-6660
▁подчеркнул	-6661
▁предлагает	-6662
▁спортивных	-6663
▁транспорта	-6664
▁естественно	-6665
▁федеральным	-6666
go	-6667
То	-6668
:09	-6669
бль	-6670
где	-6671
йна	-6672
▁Ши	-6673
▁жё	-6674
вина	-6675
жали	-6676
нист	-6677
стаи	-6678
▁Мас	-6679
▁гос	-6680
▁заг	-6681
▁кот	-6682
анали	-6683
брать	-6684
вайте	-6685
вился	-6686
зыска	-6687
тника	-6688
▁Вики	-6689
▁импе	-6690
▁темы	-6691
▁форм	-6692
тивную	-6693
▁главе	-6694
▁пообе	-6695
▁послу	-6696
▁прось	-6697
▁слабо	-6698
▁собак	-6699
▁солне	-6700
▁тепло	-6701
▁утром	-6702
▁школе	-6703
приятие	-6704
экономи	-6705
▁Виктор	-6706
▁Помимо	-6707
▁выпуск	-6708
▁стекла	-6709
▁товара	-6710
▁голосов	-6711
▁поднима	-6712
▁понятие	-6713
▁разбира	-6714
▁русский	-6715
▁удоволь	-6716
▁явления	-6717
Материалы	-6718
▁верующих	-6719
▁договори	-6720
▁принципа	-6721
▁заявление	-6722
▁правильно	-6723
▁предотвра	-6724
▁социально	-6725
▁окружающей	-6726
▁продолжает	-6727
▁обеспечение	-6728
▁предприятий	-6729
▁доказательства	-6730
.0	-6731
▁a	-6732
лян	-6733
сея	-6734
сот	-6735
▁35	-6736
▁6.	-6737
▁Дю	-6738
бели	-6739
ворю	-6740
вшем	-6741
дной	-6742
печа	-6743
▁глю	-6744
▁ров	-6745
▁тём	-6746
верен	-6747
ждены	-6748
ровой	-6749
▁бесс	-6750
▁выро	-6751
▁наша	-6752
▁наше	-6753
▁экза	-6754
▁едино	-6755
▁конец	-6756
▁концу	-6757
▁линии	-6758
▁сверх	-6759
вшегося	-6760
пейской	-6761
ционном	-6762
▁Иногда	-6763
▁делают	-6764
▁зарубе	-6765
▁любого	-6766
▁принял	-6767
▁прошед	-6768
▁альтерна	-6769
▁отказыва	-6770
▁изменение	-6771
▁направлен	-6772
▁располага	-6773
▁хозяйства	-6774
▁большинства	-6775
▁экономической	-6776
ke	-6777
ос	-6778
▁Й	-6779
:01	-6780
жая	-6781
тят	-6782
шён	-6783
▁Ир	-6784
зпро	-6785
коле	-6786
несе	-6787
онер	-6788
рией	-6789
щики	-6790
▁Фор	-6791
▁сущ	-6792
нгель	-6793
ответ	-6794
▁весе	-6795
▁вряд	-6796
▁гаси	-6797
▁диск	-6798
▁запи	-6799
▁мене	-6800
жается	-6801
титься	-6802
▁лежит	-6803
▁необы	-6804
▁непло	-6805
▁Просто	-6806
▁адеква	-6807
▁версия	-6808
▁газета	-6809
▁похоже	-6810
▁причем	-6811
▁радика	-6812
▁четвёр	-6813
рованные	-6814
▁восполь	-6815
▁диплома	-6816
▁органом	-6817
▁поступа	-6818
▁придума	-6819
▁степень	-6820
▁фильмов	-6821
▁вызывает	-6822
▁известный	-6823
▁имущества	-6824
▁посмотреть	-6825
▁предусматри	-6826
▁пространства	-6827
▁Правительство	-6828
86	-6829
КО	-6830
см	-6831
шё	-6832
:30	-6833
неф	-6834
сор	-6835
хой	-6836
▁ВВ	-6837
▁Зе	-6838
ждый	-6839
▁Обы	-6840
▁фри	-6841
▁Зате	-6842
▁лоша	-6843
▁упро	-6844
зотика	-6845
менять	-6846
мпания	-6847
полага	-6848
▁Через	-6849
▁профи	-6850
▁руках	-6851
▁свето	-6852
▁среде	-6853
раструк	-6854
▁Совета	-6855
▁искрен	-6856
▁такими	-6857
нические	-6858
▁авторов	-6859
▁выступи	-6860
▁потерпе	-6861
▁совокуп	-6862
▁стороне	-6863
▁Особенно	-6864
▁Порфирий	-6865
▁здоровья	-6866
▁подобные	-6867
▁развитию	-6868
▁советских	-6869
▁производство	-6870
▁необходимость	-6871
▁обстоятельств	-6872
ly	-6873
Ра	-6874
дё	-6875
ун	-6876
ard	-6877
без	-6878
лав	-6879
пью	-6880
вами	-6881
вной	-6882
нила	-6883
няют	-6884
реза	-6885
рита	-6886
тило	-6887
▁Вол	-6888
ource	-6889
потре	-6890
стрее	-6891
▁Стра	-6892
▁Стро	-6893
▁дают	-6894
▁купи	-6895
▁насле	-6896
▁песня	-6897
▁подчи	-6898
▁прино	-6899
▁сайта	-6900
▁терми	-6901
▁Наталь	-6902
▁Органи	-6903
▁борьбе	-6904
▁жители	-6905
▁оружие	-6906
▁партия	-6907
▁руками	-6908
▁угодно	-6909
▁корабля	-6910
▁позицию	-6911
▁показал	-6912
▁предска	-6913
▁работал	-6914
▁рабочих	-6915
▁техники	-6916
▁установ	-6917
▁четырёх	-6918
▁Наиболее	-6919
▁главного	-6920
▁операции	-6921
▁пытается	-6922
▁искусстве	-6923
▁исполнения	-6924
▁парламента	-6925
▁разрешения	-6926
▁определение	-6927
▁здравоохранения	-6928
0,	-6929
9%	-6930
98	-6931
:14	-6932
:15	-6933
ili	-6934
ish	-6935
сии	-6936
щер	-6937
▁de	-6938
▁in	-6939
▁ох	-6940
армо	-6941
дают	-6942
дови	-6943
мене	-6944
тран	-6945
трия	-6946
▁Дин	-6947
▁гер	-6948
канчи	-6949
питан	-6950
▁2001	-6951
▁Киев	-6952
▁даёт	-6953
▁иное	-6954
▁моря	-6955
▁обык	-6956
▁охва	-6957
▁хода	-6958
▁Затем	-6959
▁Обама	-6960
▁брать	-6961
▁подви	-6962
▁приез	-6963
▁альбом	-6964
▁военно	-6965
▁жилого	-6966
▁мусуль	-6967
▁подраз	-6968
▁препят	-6969
▁глазами	-6970
▁диабета	-6971
▁назвать	-6972
▁переход	-6973
▁церковь	-6974
▁введения	-6975
▁качество	-6976
▁посвящён	-6977
▁создании	-6978
▁бюджетных	-6979
▁отказался	-6980
▁свидетель	-6981
▁советской	-6982
▁создавать	-6983
▁планируется	-6984
▁предложения	-6985
▁пространстве	-6986
AS	-6987
ff	-6988
Ди	-6989
ИА	-6990
Та	-6991
▁d	-6992
▁w	-6993
por	-6994
ski	-6995
льт	-6996
▁31	-6997
влял	-6998
вяза	-6999
доне	-7000
зора	-7001
стоп	-7002
▁плю	-7003
▁уте	-7004
ванию	-7005
▁доля	-7006
▁звез	-7007
▁кине	-7008
▁мили	-7009
▁цена	-7010
ктором	-7011
литься	-7012
▁имели	-7013
▁кален	-7014
▁режим	-7015
▁семья	-7016
▁сериа	-7017
▁этими	-7018
▁входит	-7019
▁выделя	-7020
▁выхода	-7021
▁искать	-7022
▁маршру	-7023
▁теория	-7024
▁усилия	-7025
производ	-7026
▁работают	-7027
▁родители	-7028
▁аудитории	-7029
▁поставить	-7030
▁программе	-7031
▁американский	-7032
▁американского	-7033
▁доказательств	-7034
)&	-7035
Вы	-7036
Си	-7037
9_%	-7038
:13	-7039
бят	-7040
жек	-7041
лую	-7042
▁Ал	-7043
▁ще	-7044
баты	-7045
гули	-7046
толи	-7047
▁Тка	-7048
▁Тра	-7049
▁лёг	-7050
вален	-7051
дания	-7052
созна	-7053
сторо	-7054
страи	-7055
▁2013	-7056
▁Бога	-7057
▁Дело	-7058
▁Сред	-7059
▁ваше	-7060
▁воду	-7061
▁силь	-7062
▁тако	-7063
source	-7064
ваемых	-7065
водить	-7066
нились	-7067
▁Право	-7068
▁выйти	-7069
▁жесто	-7070
▁красо	-7071
▁крови	-7072
▁номер	-7073
▁ракет	-7074
▁рубля	-7075
▁судов	-7076
ющегося	-7077
▁Вашинг	-7078
▁говорю	-7079
▁изобре	-7080
▁музыку	-7081
▁образа	-7082
▁отличи	-7083
▁реклам	-7084
Экзотика	-7085
ственную	-7086
▁Отметим	-7087
▁ответил	-7088
▁преобра	-7089
▁природы	-7090
▁функций	-7091
▁обоснова	-7092
▁островов	-7093
▁участков	-7094
▁гуманитар	-7095
▁концепции	-7096
▁некоторое	-7097
▁связанные	-7098
▁отличается	-7099
▁республики	-7100
▁существуют	-7101
▁собственных	-7102
▁международного	-7103
32	-7104
4-	-7105
ab	-7106
бар	-7107
бая	-7108
льд	-7109
рка	-7110
▁IC	-7111
▁Эр	-7112
▁ке	-7113
ваны	-7114
вёзд	-7115
пира	-7116
▁Бог	-7117
▁ОВД	-7118
▁Поз	-7119
▁Сло	-7120
▁зер	-7121
вейца	-7122
полно	-7123
▁News	-7124
▁Лука	-7125
▁неве	-7126
▁сына	-7127
▁удар	-7128
▁англи	-7129
▁Анаста	-7130
▁автома	-7131
▁видеть	-7132
▁играет	-7133
▁играть	-7134
▁иденти	-7135
▁мотива	-7136
▁станов	-7137
▁факуль	-7138
▁будущее	-7139
▁наличии	-7140
▁перевоз	-7141
▁устойчи	-7142
▁культуре	-7143
▁массовой	-7144
▁способом	-7145
▁ценности	-7146
wikisource	-7147
следования	-7148
▁вариантов	-7149
▁появилась	-7150
▁сооружения	-7151
▁пользователи	-7152
▁предусмотренных	-7153
my	-7154
ws	-7155
ёд	-7156
жих	-7157
жку	-7158
нью	-7159
тём	-7160
▁Te	-7161
берг	-7162
енса	-7163
поте	-7164
стор	-7165
тите	-7166
шены	-7167
▁Кур	-7168
▁Тол	-7169
▁мон	-7170
▁стр	-7171
▁физ	-7172
строи	-7173
▁Дени	-7174
▁поиск	-7175
▁проме	-7176
▁транс	-7177
▁эпохи	-7178
ционную	-7179
▁Большо	-7180
▁авторы	-7181
▁здания	-7182
▁продви	-7183
▁решить	-7184
▁строго	-7185
▁высокой	-7186
▁молодых	-7187
▁поступи	-7188
▁пунктом	-7189
▁термина	-7190
▁включает	-7191
▁двадцати	-7192
▁контроли	-7193
▁передачи	-7194
▁появился	-7195
▁праздник	-7196
▁процессу	-7197
▁буквально	-7198
▁демонстри	-7199
▁соглашение	-7200
▁понедельник	-7201
▁пространство	-7202
▁существование	-7203
▁соответствующих	-7204
EX	-7205
sk	-7206
»?	-7207
эк	-7208
iya	-7209
ost	-7210
вец	-7211
зит	-7212
зок	-7213
▁Ио	-7214
даго	-7215
стая	-7216
сыпа	-7217
тана	-7218
чкой	-7219
▁Где	-7220
▁ФМС	-7221
верса	-7222
голов	-7223
ентов	-7224
нрави	-7225
▁Анна	-7226
▁Бори	-7227
▁Обра	-7228
▁горе	-7229
▁запо	-7230
▁изба	-7231
▁окна	-7232
▁тихо	-7233
диться	-7234
полнен	-7235
▁Земли	-7236
▁вспом	-7237
▁нашли	-7238
▁ночью	-7239
▁обита	-7240
▁расти	-7241
▁сексу	-7242
▁Грузии	-7243
▁вскоре	-7244
▁молодо	-7245
▁предше	-7246
▁товари	-7247
▁Премьер	-7248
▁выполне	-7249
▁глубоко	-7250
▁имеется	-7251
▁министр	-7252
▁обратно	-7253
▁свойств	-7254
▁субботу	-7255
▁источник	-7256
▁комитета	-7257
▁половины	-7258
▁практике	-7259
▁Австралии	-7260
▁известных	-7261
▁имущество	-7262
▁интернета	-7263
▁подразуме	-7264
▁принимает	-7265
▁указанных	-7266
▁благотвори	-7267
▁проведение	-7268
▁разнообраз	-7269
▁соглашения	-7270
▁утверждает	-7271
▁многокварти	-7272
▁американские	-7273
▁Правительства	-7274
68	-7275
ks	-7276
АС	-7277
РО	-7278
фт	-7279
:24	-7280
nov	-7281
бал	-7282
гри	-7283
кле	-7284
кта	-7285
лью	-7286
фер	-7287
▁(1	-7288
вных	-7289
исто	-7290
рена	-7291
сное	-7292
стым	-7293
▁Два	-7294
▁Ска	-7295
дерни	-7296
кость	-7297
спорт	-7298
▁души	-7299
▁желе	-7300
▁ночи	-7301
▁подс	-7302
▁твер	-7303
▁твёр	-7304
▁фонд	-7305
гается	-7306
женные	-7307
москов	-7308
ненных	-7309
няются	-7310
органи	-7311
▁пошли	-7312
браться	-7313
вляться	-7314
ционная	-7315
▁Вообще	-7316
▁дороге	-7317
▁другая	-7318
▁каждом	-7319
▁кварта	-7320
▁память	-7321
▁преодо	-7322
ствующих	-7323
▁ассоциа	-7324
▁большей	-7325
▁добавил	-7326
▁законов	-7327
▁попытки	-7328
▁религии	-7329
▁родился	-7330
▁консерва	-7331
▁напротив	-7332
▁статисти	-7333
▁эволюции	-7334
▁остальных	-7335
▁очередной	-7336
▁Белоруссии	-7337
▁большинстве	-7338
▁специалистов	-7339
5,	-7340
ap	-7341
:00	-7342
гий	-7343
дда	-7344
нку	-7345
рым	-7346
стю	-7347
▁90	-7348
indo	-7349
дите	-7350
стет	-7351
тиве	-7352
тури	-7353
физи	-7354
шина	-7355
энер	-7356
▁Сем	-7357
▁Сте	-7358
▁Фон	-7359
▁жил	-7360
▁ико	-7361
▁счё	-7362
годно	-7363
ехали	-7364
жными	-7365
чиком	-7366
щиеся	-7367
▁аван	-7368
▁аргу	-7369
▁базе	-7370
▁дочь	-7371
▁невы	-7372
▁орке	-7373
▁реки	-7374
нцикло	-7375
станти	-7376
читься	-7377
▁Закон	-7378
▁вопло	-7379
▁исчез	-7380
▁могло	-7381
▁неуда	-7382
▁нужен	-7383
▁повер	-7384
▁рассу	-7385
▁стрем	-7386
▁сумму	-7387
▁суток	-7388
▁траге	-7389
▁достиг	-7390
▁лабора	-7391
▁лучших	-7392
▁отдыха	-7393
▁прошло	-7394
тельской	-7395
▁актуаль	-7396
▁военной	-7397
▁занятия	-7398
▁обсужда	-7399
▁периода	-7400
▁специфи	-7401
▁управля	-7402
▁формули	-7403
▁выглядит	-7404
▁миллиона	-7405
▁названия	-7406
▁развитии	-7407
▁компанией	-7408
▁окончания	-7409
▁профессор	-7410
▁администрации	-7411
54	-7412
64	-7413
TS	-7414
av	-7415
ьи	-7416
гал	-7417
люб	-7418
нём	-7419
сим	-7420
▁ез	-7421
ните	-7422
шили	-7423
штей	-7424
▁Ван	-7425
▁Джо	-7426
▁МВД	-7427
▁убы	-7428
петен	-7429
тиков	-7430
▁Евге	-7431
▁Испа	-7432
▁брен	-7433
▁вами	-7434
▁выте	-7435
▁стен	-7436
▁член	-7437
indows	-7438
Газпро	-7439
вающие	-7440
ченным	-7441
▁Урана	-7442
▁абори	-7443
▁взрыв	-7444
▁обмен	-7445
▁район	-7446
▁умира	-7447
национа	-7448
▁анализ	-7449
▁думать	-7450
▁завода	-7451
▁многом	-7452
▁письмо	-7453
▁популя	-7454
▁романа	-7455
▁связей	-7456
▁третий	-7457
▁уплате	-7458
конферен	-7459
▁Новости	-7460
▁вопроса	-7461
▁главной	-7462
▁лидеров	-7463
▁молодой	-7464
▁начиная	-7465
▁предпоч	-7466
▁препара	-7467
▁продажи	-7468
▁расходы	-7469
▁занимает	-7470
▁математи	-7471
▁потенциа	-7472
▁расходов	-7473
▁последней	-7474
▁европейской	-7475
▁современных	-7476
▁участвовать	-7477
▁гражданского	-7478
▁представляют	-7479
▁g	-7480
:03	-7481
net	-7482
кса	-7483
шит	-7484
▁Её	-7485
жное	-7486
рода	-7487
фера	-7488
▁Алё	-7489
▁Ему	-7490
▁бом	-7491
▁веб	-7492
▁дав	-7493
▁зай	-7494
дание	-7495
еремо	-7496
▁Итак	-7497
▁вице	-7498
▁вода	-7499
▁креп	-7500
нности	-7501
няться	-7502
ходила	-7503
▁Союза	-7504
▁Такие	-7505
▁вторы	-7506
▁пакет	-7507
▁потра	-7508
▁этапе	-7509
▁Каждый	-7510
▁корруп	-7511
▁откров	-7512
▁сердце	-7513
▁страхо	-7514
▁удосто	-7515
▁успеха	-7516
рованный	-7517
▁абсурдо	-7518
▁декабре	-7519
▁заканчи	-7520
▁исключа	-7521
▁мужчины	-7522
▁опровер	-7523
▁проекты	-7524
▁различи	-7525
▁четырех	-7526
▁чувству	-7527
ственными	-7528
▁вещества	-7529
▁интересу	-7530
▁лицензии	-7531
▁регионов	-7532
▁судебном	-7533
▁конфликта	-7534
▁останавли	-7535
▁участники	-7536
▁занимается	-7537
▁принадлежит	-7538
▁американской	-7539
▁пользоваться	-7540
58	-7541
kt	-7542
mi	-7543
Ни	-7544
бла	-7545
дку	-7546
душ	-7547
жом	-7548
лга	-7549
раи	-7550
рай	-7551
тик	-7552
фан	-7553
▁36	-7554
▁гг	-7555
ahoo	-7556
года	-7557
рока	-7558
стья	-7559
сюда	-7560
чешь	-7561
▁Tim	-7562
▁Гер	-7563
▁Фин	-7564
▁гне	-7565
▁цве	-7566
крови	-7567
▁1998	-7568
▁Архи	-7569
▁Геор	-7570
▁Роди	-7571
▁Суще	-7572
▁банк	-7573
▁рису	-7574
альное	-7575
емости	-7576
▁Конфу	-7577
▁Новый	-7578
▁Рожде	-7579
▁вывод	-7580
▁герой	-7581
▁завод	-7582
▁камер	-7583
▁ковче	-7584
▁метал	-7585
▁мозга	-7586
▁эпизо	-7587
вленный	-7588
шинство	-7589
▁знаком	-7590
▁команд	-7591
▁просмо	-7592
▁смогли	-7593
▁учетом	-7594
▁Дмитрия	-7595
▁призыва	-7596
▁русские	-7597
▁вынужден	-7598
▁подобных	-7599
▁скорости	-7600
▁воспомина	-7601
▁гражданин	-7602
▁настоящий	-7603
▁оказалась	-7604
▁параметры	-7605
▁появились	-7606
▁используют	-7607
▁фотографии	-7608
▁конференции	-7609
▁противостоя	-7610
▁использованием	-7611
lu	-7612
:22	-7613
ant	-7614
est	-7615
Ман	-7616
нал	-7617
рье	-7618
ъем	-7619
▁5-	-7620
лиза	-7621
▁Кла	-7622
▁Том	-7623
▁вку	-7624
▁рим	-7625
Книги	-7626
тропо	-7627
швили	-7628
▁1991	-7629
▁Надо	-7630
▁Пути	-7631
▁Сиби	-7632
▁бесе	-7633
▁всём	-7634
▁замы	-7635
▁фрон	-7636
▁ярко	-7637
▁Павел	-7638
▁волны	-7639
▁живут	-7640
▁молит	-7641
▁прида	-7642
▁призы	-7643
▁Пример	-7644
▁Церкви	-7645
▁либера	-7646
▁мнения	-7647
президен	-7648
▁заранее	-7649
▁причине	-7650
▁авторите	-7651
▁документ	-7652
▁законами	-7653
▁зачастую	-7654
▁квартире	-7655
▁спортсме	-7656
следование	-7657
▁Поскольку	-7658
▁агентства	-7659
▁возможных	-7660
▁материала	-7661
▁оборудова	-7662
▁отдельные	-7663
▁позволяют	-7664
▁поколения	-7665
▁внутренних	-7666
▁гражданства	-7667
▁переговоров	-7668
▁потребности	-7669
▁интеллектуаль	-7670
▁международных	-7671
▁установленном	-7672
2-	-7673
КА	-7674
РА	-7675
СА	-7676
:12	-7677
:26	-7678
:27	-7679
den	-7680
ждь	-7681
мир	-7682
пси	-7683
сек	-7684
rome	-7685
веря	-7686
димо	-7687
енью	-7688
ризо	-7689
скоп	-7690
цкий	-7691
▁and	-7692
▁Хар	-7693
▁ада	-7694
▁сли	-7695
▁сма	-7696
нская	-7697
▁биле	-7698
▁маги	-7699
▁объё	-7700
вольно	-7701
вонаро	-7702
ландии	-7703
ложить	-7704
▁Причи	-7705
▁дворе	-7706
▁иного	-7707
▁нефтя	-7708
▁опыта	-7709
▁расте	-7710
▁служа	-7711
▁стади	-7712
▁сцене	-7713
▁члены	-7714
▁шахма	-7715
зывания	-7716
летнего	-7717
▁загряз	-7718
▁иннова	-7719
▁никому	-7720
▁объект	-7721
▁поступ	-7722
рованной	-7723
скусство	-7724
▁академи	-7725
▁бывшего	-7726
▁команда	-7727
▁рейтинг	-7728
▁Савонаро	-7729
▁посвящен	-7730
▁придётся	-7731
▁принципе	-7732
▁приходит	-7733
▁экстреми	-7734
▁элементы	-7735
▁бесплатно	-7736
▁поддержки	-7737
▁выяснилось	-7738
▁напоминает	-7739
▁становятся	-7740
▁голосования	-7741
▁европейских	-7742
▁журналистов	-7743
▁используются	-7744
▁председатель	-7745
▁характеристики	-7746
Ар	-7747
ЭС	-7748
wit	-7749
Рус	-7750
УТИ	-7751
бую	-7752
лию	-7753
мма	-7754
нёс	-7755
пах	-7756
пно	-7757
сел	-7758
▁мг	-7759
доль	-7760
зера	-7761
лика	-7762
хозя	-7763
цвет	-7764
чков	-7765
▁20-	-7766
▁Але	-7767
▁блю	-7768
▁еха	-7769
▁мра	-7770
▁оке	-7771
▁сос	-7772
▁сра	-7773
веден	-7774
нитар	-7775
▁взял	-7776
▁жёст	-7777
▁пале	-7778
смонав	-7779
чается	-7780
▁Израи	-7781
▁взаим	-7782
▁откло	-7783
▁резко	-7784
▁темно	-7785
ложение	-7786
новение	-7787
новенно	-7788
станции	-7789
▁Пробле	-7790
▁восемь	-7791
▁задачу	-7792
▁неделе	-7793
▁полном	-7794
▁раздра	-7795
▁Ярослав	-7796
▁военные	-7797
▁заявила	-7798
▁каждому	-7799
▁намерен	-7800
▁понрави	-7801
▁причины	-7802
▁хороший	-7803
▁Ткаченко	-7804
▁вернулся	-7805
▁интерпре	-7806
▁политика	-7807
▁предстоя	-7808
▁среднего	-7809
▁студенты	-7810
▁философи	-7811
▁ненависти	-7812
▁познакоми	-7813
▁помещение	-7814
▁выполнения	-7815
▁составляют	-7816
▁телевизион	-7817
▁мероприятий	-7818
▁религиозной	-7819
▁руководитель	-7820
9,	-7821
Из	-7822
:20	-7823
:25	-7824
бах	-7825
брь	-7826
кал	-7827
мут	-7828
▁1)	-7829
▁Ак	-7830
УТИН	-7831
вана	-7832
жите	-7833
кора	-7834
лкой	-7835
пети	-7836
▁Дол	-7837
▁Кни	-7838
бенок	-7839
лково	-7840
лости	-7841
никах	-7842
споко	-7843
ссель	-7844
стрем	-7845
товых	-7846
ципли	-7847
▁Абха	-7848
▁Джор	-7849
▁Дума	-7850
▁выде	-7851
▁крат	-7852
▁мело	-7853
▁пога	-7854
▁сосе	-7855
▁суме	-7856
▁этни	-7857
альным	-7858
вершен	-7859
нность	-7860
россий	-7861
смотри	-7862
ходило	-7863
▁Yahoo	-7864
▁войск	-7865
▁двери	-7866
▁лицам	-7867
▁музей	-7868
▁нефть	-7869
▁нечто	-7870
▁песен	-7871
▁супер	-7872
▁табли	-7873
лизации	-7874
формули	-7875
▁Стивен	-7876
▁бывший	-7877
▁запрет	-7878
▁лицами	-7879
▁оптими	-7880
▁подход	-7881
▁устраи	-7882
▁Следует	-7883
▁выходит	-7884
▁доброво	-7885
▁прибыли	-7886
▁связаны	-7887
▁явление	-7888
▁автомати	-7889
▁комиссии	-7890
▁координа	-7891
▁назначен	-7892
▁очевидно	-7893
▁участием	-7894
▁обращения	-7895
▁сложности	-7896
▁фотографи	-7897
▁заключение	-7898
▁следующего	-7899
▁чиновников	-7900
▁чрезвычайно	-7901
▁рассмотрения	-7902
▁многоквартирном	-7903
44	-7904
co	-7905
ал	-7906
ali	-7907
ika	-7908
вив	-7909
ету	-7910
рет	-7911
▁Ке	-7912
▁мм	-7913
возь	-7914
дете	-7915
если	-7916
куро	-7917
нена	-7918
сыла	-7919
▁Боб	-7920
▁вир	-7921
▁вни	-7922
▁жид	-7923
водят	-7924
горит	-7925
конец	-7926
нские	-7927
ровая	-7928
стрии	-7929
▁визы	-7930
▁идут	-7931
▁изъя	-7932
▁наук	-7933
▁собо	-7934
▁сюда	-7935
▁трав	-7936
грузки	-7937
менова	-7938
регули	-7939
рующих	-7940
честер	-7941
▁ПУТИН	-7942
▁брака	-7943
▁глюко	-7944
▁дверь	-7945
▁жилых	-7946
▁коали	-7947
▁покой	-7948
▁попыт	-7949
▁стере	-7950
▁учёта	-7951
▁друзей	-7952
▁исходя	-7953
▁купить	-7954
▁мужчин	-7955
▁немало	-7956
▁сезона	-7957
▁склады	-7958
▁станут	-7959
▁театре	-7960
зываться	-7961
нических	-7962
рованием	-7963
▁Николай	-7964
▁белорус	-7965
▁быстрее	-7966
▁властей	-7967
▁доходов	-7968
▁коммуни	-7969
▁критери	-7970
▁регионе	-7971
▁сказано	-7972
стической	-7973
▁денежных	-7974
▁кинемато	-7975
▁написано	-7976
▁написать	-7977
▁земельных	-7978
▁физкульту	-7979
▁ценностей	-7980
способности	-7981
▁выступления	-7982
▁опубликован	-7983
▁неоднократно	-7984
▁предполагает	-7985
!)	-7986
вес	-7987
дум	-7988
зне	-7989
син	-7990
это	-7991
▁("	-7992
Если	-7993
вера	-7994
дный	-7995
змов	-7996
лине	-7997
щина	-7998
▁Доб	-7999
▁Луж	-8000
▁Тер	-8001
▁ван	-8002
▁вез	-8003
▁нев	-8004
▁шту	-8005
▁эми	-8006
дятся	-8007
кнуть	-8008
▁Арме	-8009
▁Ники	-8010
▁Руко	-8011
▁гран	-8012
▁жюри	-8013
▁линг	-8014
▁осмо	-8015
▁экви	-8016
witter	-8017
▁видит	-8018
▁немно	-8019
▁пишут	-8020
▁понял	-8021
▁ресто	-8022
▁семью	-8023
▁успех	-8024
надцать	-8025
▁доктор	-8026
▁квадра	-8027
▁энерги	-8028
ственном	-8029
ствующие	-8030
▁ведущих	-8031
▁городах	-8032
▁новости	-8033
▁успешно	-8034
▁философ	-8035
▁хватает	-8036
▁ходатай	-8037
Петербург	-8038
▁компенса	-8039
▁министер	-8040
▁накануне	-8041
▁ощущение	-8042
▁пострада	-8043
▁сознания	-8044
▁универса	-8045
▁частично	-8046
▁население	-8047
▁обвинения	-8048
▁дальнейшем	-8049
▁полномочий	-8050
▁требованиям	-8051
▁произведений	-8052
▁рассказывает	-8053
97	-8054
»;	-8055
Де	-8056
Се	-8057
:02	-8058
бка	-8059
мас	-8060
сво	-8061
худ	-8062
ёра	-8063
▁бю	-8064
anov	-8065
демо	-8066
дила	-8067
жную	-8068
лист	-8069
лями	-8070
няка	-8071
нями	-8072
фона	-8073
чами	-8074
шена	-8075
▁90-	-8076
▁Джа	-8077
▁ОАО	-8078
▁РИА	-8079
▁Сво	-8080
▁каз	-8081
▁лес	-8082
▁поп	-8083
норма	-8084
ровка	-8085
стети	-8086
▁Вале	-8087
▁Дани	-8088
▁Древ	-8089
▁Побе	-8090
▁замо	-8091
▁сдел	-8092
▁смог	-8093
Роснеф	-8094
ванием	-8095
тологи	-8096
центра	-8097
▁Ленин	-8098
▁детям	-8099
▁нужна	-8100
▁разда	-8101
▁союза	-8102
▁экзем	-8103
▁дохода	-8104
▁космос	-8105
▁обраща	-8106
▁поправ	-8107
▁тексты	-8108
▁товары	-8109
▁узнать	-8110
▁фильме	-8111
ционными	-8112
▁Михаила	-8113
▁Спасибо	-8114
▁болезни	-8115
▁выполни	-8116
▁запуска	-8117
▁концерт	-8118
▁объекты	-8119
▁промежу	-8120
▁пятницу	-8121
▁сборной	-8122
▁Результа	-8123
▁интерфей	-8124
▁остаются	-8125
▁принципы	-8126
▁проблему	-8127
▁факторов	-8128
ственность	-8129
▁мусульман	-8130
▁требуется	-8131
▁Азербайджа	-8132
▁назначения	-8133
▁находиться	-8134
▁определить	-8135
▁отсутствии	-8136
▁разработан	-8137
▁впоследствии	-8138
▁несовершенно	-8139
▁экономических	-8140
94	-8141
ay	-8142
bu	-8143
5_%	-8144
nyj	-8145
нты	-8146
граф	-8147
дена	-8148
поле	-8149
рены	-8150
стям	-8151
тяги	-8152
флек	-8153
шено	-8154
щины	-8155
▁III	-8156
▁вое	-8157
▁зал	-8158
▁сче	-8159
▁хол	-8160
:2007	-8161
тинен	-8162
тники	-8163
фикси	-8164
▁Коми	-8165
▁будь	-8166
▁нашу	-8167
▁спец	-8168
▁таин	-8169
▁ущер	-8170
▁ходу	-8171
▁холо	-8172
нодоро	-8173
нулись	-8174
ющимся	-8175
▁Стоит	-8176
▁Такое	-8177
▁вклад	-8178
▁вокза	-8179
▁испра	-8180
▁расче	-8181
▁сопер	-8182
▁Chrome	-8183
▁диалек	-8184
▁защиту	-8185
▁здание	-8186
▁избран	-8187
▁кокаин	-8188
▁обусло	-8189
▁ответа	-8190
▁полный	-8191
▁режиме	-8192
▁сервис	-8193
▁Windows	-8194
▁заплани	-8195
▁изделий	-8196
▁картина	-8197
▁местные	-8198
▁полицей	-8199
▁пропове	-8200
▁телефон	-8201
▁нравится	-8202
▁обладает	-8203
▁показали	-8204
▁причинам	-8205
▁пропаган	-8206
▁организма	-8207
▁проводить	-8208
▁следствие	-8209
▁следующем	-8210
▁территори	-8211
▁подготовки	-8212
▁применение	-8213
▁сопровожда	-8214
▁сотрудники	-8215
▁управление	-8216
▁установлено	-8217
▁распространение	-8218
!"	-8219
-2	-8220
din	-8221
mer	-8222
бно	-8223
бое	-8224
мат	-8225
мно	-8226
руя	-8227
▁2)	-8228
▁яй	-8229
гене	-8230
дешь	-8231
емом	-8232
жала	-8233
йдет	-8234
лога	-8235
мать	-8236
ражи	-8237
роны	-8238
▁400	-8239
▁Дон	-8240
▁ато	-8241
▁куп	-8242
▁уто	-8243
▁фло	-8244
▁шоу	-8245
насти	-8246
сибир	-8247
турой	-8248
▁Исла	-8249
▁базы	-8250
▁ваго	-8251
▁выру	-8252
▁нрав	-8253
▁суть	-8254
▁сход	-8255
нуться	-8256
▁Борхе	-8257
▁внесе	-8258
▁гиган	-8259
▁груза	-8260
▁общее	-8261
▁праве	-8262
▁равен	-8263
▁Причём	-8264
▁Турции	-8265
▁взыска	-8266
▁голове	-8267
▁грузин	-8268
▁заказа	-8269
▁знания	-8270
▁оптима	-8271
▁прозра	-8272
▁решать	-8273
▁самолё	-8274
▁скажем	-8275
▁сообра	-8276
▁стадии	-8277
▁Главный	-8278
▁влияния	-8279
▁приняли	-8280
▁санкции	-8281
▁столице	-8282
ствования	-8283
▁выступил	-8284
▁институт	-8285
▁отставку	-8286
▁приглаша	-8287
▁директора	-8288
▁процессов	-8289
▁художника	-8290
▁эквивален	-8291
▁Президента	-8292
▁получилось	-8293
▁творчества	-8294
▁университет	-8295
▁возможностей	-8296
▁преступлений	-8297
▁соответствующей	-8298
/%	-8299
3-	-8300
art	-8301
kon	-8302
Пре	-8303
При	-8304
лив	-8305
цер	-8306
▁Ры	-8307
▁Эк	-8308
▁яв	-8309
бург	-8310
емую	-8311
ллер	-8312
ново	-8313
рака	-8314
теры	-8315
▁вен	-8316
▁заб	-8317
▁юго	-8318
:2013	-8319
вятся	-8320
довых	-8321
ковые	-8322
мьера	-8323
несен	-8324
перёд	-8325
хозяй	-8326
▁Сети	-8327
▁курс	-8328
▁напа	-8329
▁неви	-8330
▁опер	-8331
▁проч	-8332
женный	-8333
ллиген	-8334
стской	-8335
▁Леони	-8336
▁Такой	-8337
▁заслу	-8338
▁интен	-8339
▁кампа	-8340
▁колец	-8341
▁колла	-8342
▁курса	-8343
▁ровно	-8344
стройки	-8345
ступает	-8346
тивными	-8347
▁банков	-8348
▁важней	-8349
▁вступи	-8350
▁знаний	-8351
▁именем	-8352
▁наслед	-8353
▁повлия	-8354
▁проник	-8355
▁телеви	-8356
▁веществ	-8357
▁неправи	-8358
▁принцип	-8359
▁рекламы	-8360
▁известен	-8361
▁получает	-8362
▁понимать	-8363
▁преимуще	-8364
▁протеста	-8365
▁способны	-8366
▁Константи	-8367
▁объяснить	-8368
▁опасность	-8369
▁появления	-8370
▁сообщение	-8371
▁показывает	-8372
▁средствами	-8373
▁заключается	-8374
▁максимально	-8375
▁способность	-8376
▁физического	-8377
▁юридических	-8378
▁заинтересова	-8379
▁производится	-8380
?!	-8381
Фи	-8382
▁+	-8383
0_%	-8384
:05	-8385
:29	-8386
yan	-8387
бил	-8388
зию	-8389
кей	-8390
мит	-8391
нув	-8392
рои	-8393
▁СП	-8394
▁Хи	-8395
▁Ци	-8396
коль	-8397
нено	-8398
таря	-8399
▁Кре	-8400
▁Спи	-8401
▁баш	-8402
▁бер	-8403
▁лек	-8404
▁ожи	-8405
▁тка	-8406
класс	-8407
лланд	-8408
стная	-8409
стром	-8410
▁атом	-8411
▁боле	-8412
▁певи	-8413
▁риск	-8414
▁собе	-8415
▁сцен	-8416
вились	-8417
ленные	-8418
нулась	-8419
обходи	-8420
тились	-8421
▁Григо	-8422
▁доход	-8423
▁здоро	-8424
▁напом	-8425
▁нашим	-8426
▁планы	-8427
▁повре	-8428
▁посту	-8429
▁свете	-8430
▁спаса	-8431
вленной	-8432
▁Опреде	-8433
▁выступ	-8434
▁головы	-8435
▁детьми	-8436
▁дефици	-8437
▁каждая	-8438
▁неизбе	-8439
▁прочих	-8440
▁случаи	-8441
▁увидел	-8442
▁услуги	-8443
тировать	-8444
▁желание	-8445
▁периоди	-8446
▁сделано	-8447
▁вопросом	-8448
▁географи	-8449
▁материал	-8450
▁писателя	-8451
▁регионах	-8452
▁сформули	-8453
▁небольшой	-8454
▁прекрасно	-8455
▁происходя	-8456
▁Большинство	-8457
▁воздействие	-8458
▁железнодоро	-8459
▁принимающей	-8460
▁республикан	-8461
▁собственников	-8462
AT	-8463
ev	-8464
gi	-8465
Ва	-8466
Лу	-8467
гих	-8468
дая	-8469
жка	-8470
пок	-8471
чок	-8472
▁Ах	-8473
▁ХХ	-8474
евич	-8475
неры	-8476
пари	-8477
рядо	-8478
▁Вул	-8479
▁Гро	-8480
▁Ноя	-8481
▁бит	-8482
▁игр	-8483
▁ниж	-8484
▁сва	-8485
рикан	-8486
финан	-8487
▁Меди	-8488
▁духа	-8489
▁кита	-8490
▁лето	-8491
▁огня	-8492
▁рыно	-8493
лизова	-8494
образи	-8495
центри	-8496
▁Далее	-8497
▁ведёт	-8498
▁войну	-8499
▁вышла	-8500
▁гармо	-8501
▁докла	-8502
▁любое	-8503
▁нефте	-8504
▁облег	-8505
▁проде	-8506
▁самим	-8507
▁сроки	-8508
полномо	-8509
▁Первые	-8510
▁голоса	-8511
▁ошибки	-8512
▁победы	-8513
▁подлин	-8514
▁самому	-8515
▁статья	-8516
▁тридца	-8517
▁церемо	-8518
▁штрафа	-8519
▁зафикси	-8520
▁методов	-8521
▁мировых	-8522
▁однозна	-8523
▁подрост	-8524
▁публику	-8525
▁свободу	-8526
▁Эксперты	-8527
▁министра	-8528
▁редакции	-8529
▁сентябре	-8530
▁случайно	-8531
▁ближайшее	-8532
▁демонстра	-8533
▁контексте	-8534
▁оппозиции	-8535
▁превышает	-8536
▁продолжал	-8537
▁вследствие	-8538
▁независимо	-8539
▁творчество	-8540
▁председателя	-8541
▁собственного	-8542
▁установленных	-8543
67	-8544
ho	-8545
Ла	-8546
▁n	-8547
:08	-8548
ina	-8549
tar	-8550
бус	-8551
зил	-8552
йко	-8553
дика	-8554
пуск	-8555
риев	-8556
туда	-8557
▁Сим	-8558
▁Тех	-8559
▁рит	-8560
▁шаг	-8561
йтесь	-8562
плоть	-8563
раста	-8564
ходом	-8565
▁дали	-8566
▁душу	-8567
▁зага	-8568
▁изви	-8569
▁мимо	-8570
▁мной	-8571
▁моги	-8572
▁нере	-8573
всегда	-8574
вшимся	-8575
зависи	-8576
шенных	-8577
▁Всего	-8578
▁Китае	-8579
▁Татар	-8580
▁внеза	-8581
▁нашем	-8582
▁недав	-8583
▁отказ	-8584
▁подпи	-8585
▁самую	-8586
▁сумма	-8587
▁сцены	-8588
▁Исполь	-8589
▁гибели	-8590
▁дискур	-8591
▁солдат	-8592
▁соотно	-8593
▁Татьяна	-8594
▁заявили	-8595
▁комнате	-8596
▁наиболь	-8597
▁открыто	-8598
▁подсуди	-8599
▁прокура	-8600
▁реально	-8601
▁связыва	-8602
▁частных	-8603
▁Известно	-8604
▁Компания	-8605
▁перевода	-8606
▁собрания	-8607
▁сообщили	-8608
▁вернуться	-8609
▁действует	-8610
▁измерения	-8611
▁останется	-8612
▁экономике	-8613
▁источников	-8614
▁миллиардов	-8615
▁отказаться	-8616
▁предпочита	-8617
▁территория	-8618
▁устройство	-8619
▁объединения	-8620
▁национального	-8621
▁человеческого	-8622
эф	-8623
▁!	-8624
ate	-8625
rot	-8626
ust	-8627
вис	-8628
вол	-8629
лёт	-8630
нке	-8631
тры	-8632
ваку	-8633
лера	-8634
мети	-8635
моно	-8636
склю	-8637
ссом	-8638
чает	-8639
шься	-8640
▁Бан	-8641
▁Мат	-8642
▁Мол	-8643
▁зад	-8644
▁мед	-8645
▁сей	-8646
0%93%	-8647
вшему	-8648
манов	-8649
стоит	-8650
▁Егип	-8651
▁Меня	-8652
▁буты	-8653
▁возо	-8654
▁деше	-8655
▁идею	-8656
▁леса	-8657
▁рубе	-8658
Музыка	-8659
стребо	-8660
▁Билли	-8661
▁Мадон	-8662
▁Перед	-8663
▁броса	-8664
▁грамо	-8665
▁моего	-8666
▁силой	-8667
▁учета	-8668
странён	-8669
▁Андрея	-8670
▁откуда	-8671
▁пропор	-8672
▁рекорд	-8673
▁статью	-8674
▁фонемы	-8675
▁хотели	-8676
Контакте	-8677
праведли	-8678
▁Америка	-8679
▁Америке	-8680
▁Наконец	-8681
▁Примеча	-8682
▁бесконе	-8683
▁королев	-8684
▁общения	-8685
▁перспек	-8686
▁референ	-8687
▁туристи	-8688
▁геометри	-8689
▁двадцать	-8690
▁дисципли	-8691
▁добиться	-8692
▁небольшо	-8693
▁паровозы	-8694
▁политику	-8695
▁половине	-8696
▁получать	-8697
▁проведен	-8698
▁пытаются	-8699
▁рассчита	-8700
▁ядерного	-8701
▁гражданам	-8702
▁революции	-8703
▁свободного	-8704
▁собственный	-8705
▁государством	-8706
▁общественной	-8707
▁руководством	-8708
▁происхождения	-8709
▁распространения	-8710
89	-8711
sp	-8712
йо	-8713
ом	-8714
ler	-8715
ИДЕ	-8716
бия	-8717
вио	-8718
вяз	-8719
жий	-8720
кут	-8721
лил	-8722
мян	-8723
нек	-8724
пки	-8725
фом	-8726
чёр	-8727
▁ТЗ	-8728
sion	-8729
Фран	-8730
рони	-8731
стый	-8732
▁150	-8733
▁190	-8734
▁ата	-8735
▁бас	-8736
▁очи	-8737
▁сеп	-8738
▁син	-8739
▁уво	-8740
▁шка	-8741
Герма	-8742
ждено	-8743
ланти	-8744
ловой	-8745
рархи	-8746
стное	-8747
чному	-8748
▁iPad	-8749
▁вдох	-8750
▁днев	-8751
▁долю	-8752
▁моих	-8753
▁мужи	-8754
▁одни	-8755
▁соли	-8756
жество	-8757
кового	-8758
▁Никто	-8759
▁Ольга	-8760
▁аспек	-8761
▁блоки	-8762
▁входя	-8763
▁завое	-8764
▁кисло	-8765
▁крите	-8766
▁поток	-8767
▁потря	-8768
▁смени	-8769
▁сотни	-8770
ентации	-8771
ждением	-8772
ченного	-8773
шествия	-8774
▁Греции	-8775
▁выбран	-8776
▁изменя	-8777
▁никого	-8778
▁остров	-8779
▁потери	-8780
▁уходит	-8781
▁Twitter	-8782
▁Меркель	-8783
▁девушка	-8784
▁издание	-8785
▁интегра	-8786
▁комнату	-8787
▁призвал	-8788
▁четверг	-8789
нического	-8790
▁компетен	-8791
▁конкурса	-8792
▁контракт	-8793
▁начинают	-8794
▁обстанов	-8795
▁огромное	-8796
▁отвечает	-8797
▁построен	-8798
▁Искусство	-8799
▁должность	-8800
▁журналист	-8801
▁получение	-8802
▁правления	-8803
▁следующим	-8804
▁выполнение	-8805
▁губернатор	-8806
▁инфраструк	-8807
▁наблюдения	-8808
▁публикации	-8809
▁совершения	-8810
▁установить	-8811
▁должностных	-8812
▁оборудования	-8813
▁обязанностей	-8814
▁сотрудничества	-8815
▁Конституционный	-8816
59	-8817
8,	-8818
mo	-8819
РЕ	-8820
эр	-8821
:04	-8822
ger	-8823
ich	-8824
len	-8825
tel	-8826
ure	-8827
Пер	-8828
гим	-8829
змы	-8830
лке	-8831
пин	-8832
чны	-8833
▁3-	-8834
▁8.	-8835
▁BP	-8836
▁Эй	-8837
▁кг	-8838
hone	-8839
Обра	-8840
рели	-8841
твор	-8842
ходу	-8843
▁Бли	-8844
▁Иль	-8845
▁Оно	-8846
▁Син	-8847
▁Ура	-8848
▁эли	-8849
несса	-8850
ницах	-8851
педия	-8852
ревно	-8853
скать	-8854
стьян	-8855
▁Иван	-8856
▁Разу	-8857
▁Фили	-8858
▁базо	-8859
▁дает	-8860
▁дове	-8861
▁норм	-8862
▁таба	-8863
▁учет	-8864
▁цело	-8865
лектро	-8866
нового	-8867
ющаяся	-8868
▁Борис	-8869
▁Обамы	-8870
▁вошли	-8871
▁движу	-8872
▁крова	-8873
▁летом	-8874
▁опере	-8875
▁спаси	-8876
▁целый	-8877
▁Первое	-8878
▁Подроб	-8879
▁аварии	-8880
▁задума	-8881
▁недель	-8882
▁ненави	-8883
▁онлайн	-8884
▁педаго	-8885
▁подряд	-8886
▁продаж	-8887
▁расчет	-8888
▁устрем	-8889
▁ходить	-8890
логового	-8891
▁Решение	-8892
▁алгорит	-8893
▁внешней	-8894
▁критики	-8895
▁масштаб	-8896
▁ресурсы	-8897
▁среднем	-8898
▁стимули	-8899
рованного	-8900
▁Официаль	-8901
▁бороться	-8902
▁виртуаль	-8903
▁временно	-8904
▁инсулина	-8905
▁механизм	-8906
▁обучения	-8907
▁сведений	-8908
▁фантасти	-8909
▁Лукашенко	-8910
▁городской	-8911
▁повышение	-8912
▁приспособ	-8913
▁показатели	-8914
▁утверждают	-8915
▁единственный	-8916
▁представлены	-8917
▁возникновения	-8918
))	-8919
95	-8920
ty	-8921
СР	-8922
Ха	-8923
бь	-8924
:28	-8925
ice	-8926
вдо	-8927
дев	-8928
мён	-8929
плы	-8930
чне	-8931
ёрт	-8932
▁3)	-8933
▁Ай	-8934
жном	-8935
лков	-8936
пунк	-8937
рная	-8938
тало	-8939
шкой	-8940
▁Наз	-8941
▁Оче	-8942
▁кам	-8943
▁кос	-8944
▁оча	-8945
▁шах	-8946
довал	-8947
летие	-8948
летря	-8949
лится	-8950
стным	-8951
▁Нача	-8952
▁Пара	-8953
▁диза	-8954
▁иным	-8955
▁кори	-8956
▁матч	-8957
▁моде	-8958
▁номе	-8959
▁спло	-8960
жаться	-8961
рением	-8962
эффици	-8963
▁Кореи	-8964
▁Ливии	-8965
▁Счита	-8966
▁актри	-8967
▁акцен	-8968
▁англо	-8969
▁вмеша	-8970
▁войне	-8971
▁глупо	-8972
▁имена	-8973
▁индей	-8974
▁итого	-8975
▁костю	-8976
▁люблю	-8977
▁митин	-8978
▁музея	-8979
▁пошёл	-8980
▁реаги	-8981
▁рожда	-8982
демокра	-8983
сообраз	-8984
странец	-8985
тизации	-8986
▁Обычно	-8987
▁Первая	-8988
▁ввести	-8989
▁второе	-8990
▁героев	-8991
▁зарпла	-8992
▁матема	-8993
▁многое	-8994
▁молоде	-8995
▁сезоне	-8996
▁служит	-8997
▁считаю	-8998
Космонав	-8999
нический	-9000
▁Сильвио	-9001
▁встрече	-9002
▁вторник	-9003
▁доллара	-9004
▁картину	-9005
▁участок	-9006
▁обознача	-9007
▁описание	-9008
▁остались	-9009
▁приорите	-9010
▁выступает	-9011
▁указывает	-9012
▁литература	-9013
▁неизвестно	-9014
▁находящихся	-9015
▁необходимые	-9016
▁преступление	-9017
▁руководителя	-9018
▁физкультурно	-9019
▁взаимодействия	-9020
▁государственный	-9021
▁предусмотренные	-9022
0&	-9023
65	-9024
МА	-9025
nik	-9026
вик	-9027
нги	-9028
urus	-9029
вляя	-9030
ликт	-9031
ложи	-9032
онец	-9033
петь	-9034
слом	-9035
стал	-9036
сурд	-9037
тари	-9038
▁Осо	-9039
▁Рим	-9040
▁аук	-9041
▁бир	-9042
▁мое	-9043
▁опу	-9044
▁ске	-9045
1%86%	-9046
dinfo	-9047
Спорт	-9048
тацию	-9049
циден	-9050
числи	-9051
явить	-9052
▁1990	-9053
▁2015	-9054
▁«...	-9055
▁Было	-9056
▁Валь	-9057
▁Зато	-9058
▁база	-9059
▁инве	-9060
▁испа	-9061
▁паке	-9062
▁пона	-9063
▁поса	-9064
▁увле	-9065
вшееся	-9066
кистан	-9067
сульта	-9068
▁Следу	-9069
▁думал	-9070
▁матча	-9071
▁пойти	-9072
▁пункт	-9073
▁скром	-9074
▁стари	-9075
▁стоял	-9076
▁фабри	-9077
▁фунда	-9078
ovdinfo	-9079
зования	-9080
пустить	-9081
▁Вопрос	-9082
▁времён	-9083
▁давать	-9084
▁закреп	-9085
▁неверо	-9086
▁ноябре	-9087
▁полное	-9088
▁постав	-9089
▁пройти	-9090
▁работо	-9091
▁смысла	-9092
▁фунтов	-9093
▁эффект	-9094
ведением	-9095
зоваться	-9096
▁Алёхина	-9097
▁заверши	-9098
▁заметно	-9099
▁имеются	-9100
▁империи	-9101
▁модерни	-9102
▁октябре	-9103
▁погибли	-9104
▁прочита	-9105
▁ребенок	-9106
▁совпада	-9107
▁финансы	-9108
▁календар	-9109
▁способен	-9110
▁оказаться	-9111
▁планирует	-9112
▁подобного	-9113
▁продуктов	-9114
▁свободной	-9115
▁употребля	-9116
▁Предполага	-9117
▁интеллиген	-9118
▁работников	-9119
▁разумеется	-9120
▁советского	-9121
▁творчестве	-9122
▁экспертизы	-9123
Космонавтика	-9124
▁ограничений	-9125
▁последствий	-9126
▁приходилось	-9127
▁пользователя	-9128
42	-9129
47	-9130
pl	-9131
АП	-9132
Ви	-9133
mos	-9134
ons	-9135
raz	-9136
нял	-9137
рер	-9138
рки	-9139
эта	-9140
джер	-9141
доби	-9142
знен	-9143
муля	-9144
стен	-9145
тиву	-9146
▁Брю	-9147
▁Гон	-9148
▁Кол	-9149
▁Неу	-9150
▁вед	-9151
▁зас	-9152
▁зим	-9153
▁лау	-9154
▁рис	-9155
▁ума	-9156
ваний	-9157
дился	-9158
етесь	-9159
менту	-9160
стили	-9161
▁1999	-9162
▁День	-9163
▁выжи	-9164
▁двое	-9165
▁заба	-9166
▁излу	-9167
▁куль	-9168
▁цену	-9169
▁чуде	-9170
редото	-9171
▁Гарри	-9172
▁банка	-9173
▁блоге	-9174
▁земля	-9175
▁любит	-9176
▁редак	-9177
▁сутки	-9178
▁фирмы	-9179
▁школу	-9180
монстри	-9181
ровался	-9182
▁Сергея	-9183
▁важных	-9184
▁восьми	-9185
▁вторая	-9186
▁диамет	-9187
▁канала	-9188
▁набира	-9189
▁настаи	-9190
▁остано	-9191
▁ошибок	-9192
▁создан	-9193
▁Украина	-9194
▁великой	-9195
▁высшего	-9196
▁десятки	-9197
▁династи	-9198
▁единицы	-9199
▁иерархи	-9200
▁намного	-9201
▁образов	-9202
▁остался	-9203
▁повышен	-9204
▁размеры	-9205
▁страниц	-9206
▁счастье	-9207
▁учитель	-9208
▁феврале	-9209
▁энцикло	-9210
▁большого	-9211
▁зарабаты	-9212
▁конечном	-9213
▁началась	-9214
▁неопреде	-9215
▁проверки	-9216
▁фестиваля	-9217
▁читателей	-9218
▁отсутствия	-9219
▁показывают	-9220
▁появляется	-9221
▁продолжают	-9222
▁реальность	-9223
▁Афганистане	-9224
▁посетителей	-9225
▁электронной	-9226
▁православной	-9227
▁исследователь	-9228
▁независимости	-9229
▁исполнительной	-9230
2)	-9231
Ar	-9232
йд	-9233
ere	-9234
inu	-9235
mit	-9236
жны	-9237
нят	-9238
рги	-9239
сна	-9240
▁РА	-9241
льти	-9242
▁And	-9243
▁Вин	-9244
▁Ной	-9245
▁Пав	-9246
▁мае	-9247
▁соц	-9248
▁усы	-9249
сылки	-9250
тками	-9251
▁Храм	-9252
▁доче	-9253
▁знак	-9254
▁зоны	-9255
▁мужа	-9256
▁неот	-9257
▁обря	-9258
▁побы	-9259
▁почу	-9260
▁рано	-9261
▁фраг	-9262
▁цене	-9263
▁япон	-9264
охрани	-9265
словия	-9266
тельны	-9267
▁Марии	-9268
▁Созда	-9269
▁богат	-9270
▁везде	-9271
▁винов	-9272
▁ворот	-9273
▁делам	-9274
▁задол	-9275
▁канал	-9276
▁общий	-9277
▁подве	-9278
▁расту	-9279
▁страх	-9280
▁суммы	-9281
▁типов	-9282
▁школь	-9283
фикация	-9284
▁влечет	-9285
▁гипоте	-9286
▁минуты	-9287
▁назван	-9288
▁партнё	-9289
▁поздра	-9290
▁почита	-9291
▁фильмы	-9292
▁головой	-9293
▁комнаты	-9294
▁мужчина	-9295
▁полтора	-9296
▁привело	-9297
▁пунктов	-9298
▁соревно	-9299
▁упомяну	-9300
▁участки	-9301
▁Основные	-9302
▁континен	-9303
▁коэффици	-9304
▁личность	-9305
▁мышления	-9306
▁получают	-9307
▁Новосибир	-9308
▁договорен	-9309
▁наверняка	-9310
▁повышения	-9311
▁пределами	-9312
▁разговари	-9313
▁устройств	-9314
▁иностранец	-9315
▁коллектива	-9316
▁налогового	-9317
▁архитектуры	-9318
▁изображения	-9319
▁пользования	-9320
▁правоохрани	-9321
▁продемонстри	-9322
▁рассмотрение	-9323
▁использовании	-9324
uz	-9325
ИЧ	-9326
▁v	-9327
ord	-9328
ppy	-9329
tiv	-9330
yat	-9331
жна	-9332
спи	-9333
lass	-9334
node	-9335
бель	-9336
вило	-9337
рила	-9338
цина	-9339
▁(18	-9340
▁New	-9341
▁Лин	-9342
▁Луч	-9343
▁Фри	-9344
▁век	-9345
▁тща	-9346
▁ука	-9347
▁шла	-9348
Лента	-9349
ждена	-9350
логом	-9351
служа	-9352
совой	-9353
щенно	-9354
эффек	-9355
юджет	-9356
▁1000	-9357
▁Люди	-9358
▁Ника	-9359
▁Пуга	-9360
▁Руси	-9361
▁Уиль	-9362
▁воин	-9363
▁вспы	-9364
▁зеле	-9365
▁избы	-9366
▁пола	-9367
▁теме	-9368
▁теми	-9369
вывать	-9370
▁Часто	-9371
▁ближе	-9372
▁вверх	-9373
▁выгод	-9374
▁карты	-9375
▁лагер	-9376
▁марте	-9377
▁набор	-9378
▁помню	-9379
▁прият	-9380
▁продю	-9381
▁прока	-9382
▁путём	-9383
▁судно	-9384
▁трени	-9385
▁успел	-9386
▁эпоху	-9387
работки	-9388
▁Особен	-9389
▁бездом	-9390
▁бывают	-9391
▁горизо	-9392
▁господ	-9393
▁дорого	-9394
▁машину	-9395
▁основу	-9396
▁поезда	-9397
▁полков	-9398
▁пришёл	-9399
▁пункте	-9400
▁репута	-9401
▁рефлек	-9402
▁смотря	-9403
▁точнее	-9404
тература	-9405
▁Израиль	-9406
▁вопросу	-9407
▁питания	-9408
▁примени	-9409
▁продукт	-9410
▁простой	-9411
▁пытался	-9412
▁рассказ	-9413
▁соверши	-9414
▁условно	-9415
▁фильтра	-9416
▁целиком	-9417
ВКонтакте	-9418
Манчестер	-9419
▁Председа	-9420
▁ежегодно	-9421
▁показать	-9422
▁системой	-9423
▁хранения	-9424
ственности	-9425
▁находился	-9426
▁положении	-9427
▁случилось	-9428
▁составила	-9429
▁размещения	-9430
▁разрешение	-9431
▁российским	-9432
▁территорию	-9433
▁инструмента	-9434
▁объясняется	-9435
▁Министерство	-9436
▁исследование	-9437
▁международной	-9438
▁следовательно	-9439
0.	-9440
53	-9441
77	-9442
ДР	-9443
ФШ	-9444
:06	-9445
:07	-9446
are	-9447
tor	-9448
Что	-9449
дры	-9450
пии	-9451
enta	-9452
Моск	-9453
гими	-9454
дача	-9455
кать	-9456
нару	-9457
пуль	-9458
рень	-9459
туга	-9460
феру	-9461
▁Рот	-9462
▁Тот	-9463
▁Фло	-9464
▁вар	-9465
▁дат	-9466
▁ист	-9467
▁юби	-9468
Пусси	-9469
водит	-9470
неров	-9471
сение	-9472
▁1996	-9473
▁Олег	-9474
▁визу	-9475
▁зоне	-9476
▁игре	-9477
▁инер	-9478
▁коме	-9479
▁млад	-9480
▁окра	-9481
▁судо	-9482
▁титу	-9483
Часкор	-9484
рующие	-9485
▁Подоб	-9486
▁Проек	-9487
▁Райот	-9488
▁домов	-9489
▁имела	-9490
▁молча	-9491
▁песню	-9492
▁прину	-9493
▁рассе	-9494
▁рецеп	-9495
▁рукой	-9496
▁секун	-9497
▁траги	-9498
▁штраф	-9499
▁агента	-9500
▁апреле	-9501
▁въезда	-9502
▁выделе	-9503
▁выстре	-9504
▁испове	-9505
▁наряду	-9506
▁отобра	-9507
▁попали	-9508
▁расста	-9509
▁романе	-9510
▁стремя	-9511
▁эстети	-9512
▁Человек	-9513
▁группой	-9514
▁израиль	-9515
▁отрасли	-9516
▁попытка	-9517
▁пройдёт	-9518
▁разделе	-9519
▁решении	-9520
▁сказали	-9521
▁служить	-9522
▁событие	-9523
▁сопроти	-9524
▁варианты	-9525
▁компанию	-9526
▁компонен	-9527
▁появится	-9528
▁прибытии	-9529
▁признать	-9530
▁свободно	-9531
▁сообщила	-9532
▁спокойно	-9533
▁стереоти	-9534
▁Интересно	-9535
▁института	-9536
▁испытаний	-9537
▁провинции	-9538
▁следующее	-9539
▁сосредото	-9540
▁Разумеется	-9541
▁изначально	-9542
▁компьютера	-9543
▁определяет	-9544
▁губернатора	-9545
▁специальных	-9546
▁способности	-9547
▁предоставлении	-9548
▁индивидуального	-9549
Ле	-9550
Пи	-9551
ТС	-9552
дю	-9553
let	-9554
зму	-9555
рья	-9556
▁Оп	-9557
boza	-9558
ждал	-9559
зили	-9560
лизм	-9561
льев	-9562
торе	-9563
▁Pro	-9564
▁Зак	-9565
▁Тео	-9566
▁Уни	-9567
▁Чай	-9568
▁бла	-9569
▁вов	-9570
▁иду	-9571
▁кое	-9572
▁май	-9573
▁ски	-9574
▁сму	-9575
▁хво	-9576
yakov	-9577
емыми	-9578
конфу	-9579
несли	-9580
севдо	-9581
тится	-9582
товые	-9583
▁Анти	-9584
▁Голо	-9585
▁Позд	-9586
▁араб	-9587
▁бата	-9588
▁июне	-9589
▁края	-9590
▁обоб	-9591
▁окон	-9592
▁осла	-9593
▁пары	-9594
▁эфир	-9595
городи	-9596
емость	-9597
тывает	-9598
▁Донец	-9599
▁Много	-9600
▁Перво	-9601
▁блока	-9602
▁владе	-9603
▁водой	-9604
▁возро	-9605
▁знали	-9606
▁подда	-9607
▁рекон	-9608
▁школа	-9609
tarboza	-9610
головок	-9611
никовой	-9612
▁Энгель	-9613
▁абстра	-9614
▁молодё	-9615
▁научно	-9616
▁поклон	-9617
▁списке	-9618
▁хочешь	-9619
▁языков	-9620
▁языком	-9621
Германия	-9622
строение	-9623
▁Госдумы	-9624
▁Институ	-9625
▁богослу	-9626
▁кодекса	-9627
▁миллион	-9628
▁получит	-9629
▁развива	-9630
▁разными	-9631
▁связана	-9632
▁урегули	-9633
▁железной	-9634
▁зрителей	-9635
▁молекулы	-9636
▁оставить	-9637
▁политике	-9638
▁принадле	-9639
▁сознание	-9640
▁возникают	-9641
▁китайской	-9642
▁наказание	-9643
▁приостано	-9644
▁учитывать	-9645
tarbozaurus	-9646
▁неожиданно	-9647
▁отношениях	-9648
▁прекратить	-9649
▁применяются	-9650
▁установлены	-9651
▁Представители	-9652
▁распределения	-9653
▁свидетельство	-9654
▁дополнительные	-9655
▁экономического	-9656
63	-9657
85	-9658
ky	-9659
pa	-9660
ue	-9661
ГА	-9662
ork	-9663
бит	-9664
ваи	-9665
дук	-9666
ума	-9667
▁3,	-9668
▁нё	-9669
вказ	-9670
дире	-9671
жало	-9672
лили	-9673
рона	-9674
сени	-9675
▁1,5	-9676
▁NAS	-9677
▁Пло	-9678
▁Теа	-9679
▁дро	-9680
▁оты	-9681
▁пья	-9682
▁свы	-9683
▁смя	-9684
▁тип	-9685
sirot	-9686
блоки	-9687
ешься	-9688
ровые	-9689
секре	-9690
яться	-9691
▁Анны	-9692
▁вижу	-9693
▁граф	-9694
▁кара	-9695
▁паци	-9696
▁сила	-9697
▁схва	-9698
▁сюже	-9699
▁уско	-9700
грамма	-9701
десяти	-9702
летних	-9703
настоя	-9704
точных	-9705
▁Герак	-9706
▁Митро	-9707
▁вырос	-9708
▁жизне	-9709
▁звёзд	-9710
▁зерка	-9711
▁знаем	-9712
▁любых	-9713
▁любят	-9714
▁мечта	-9715
▁набра	-9716
▁стены	-9717
▁стиль	-9718
▁стоят	-9719
▁строй	-9720
▁штата	-9721
Газпром	-9722
▁iPhone	-9723
▁востор	-9724
▁вплоть	-9725
▁входят	-9726
▁глазах	-9727
▁границ	-9728
▁дорогу	-9729
▁записы	-9730
▁католи	-9731
▁поздно	-9732
▁привет	-9733
▁раство	-9734
▁сборов	-9735
▁солнце	-9736
▁угрозы	-9737
▁учения	-9738
sirotkin	-9739
вленного	-9740
ссельдор	-9741
▁Наталья	-9742
▁Сначала	-9743
▁капитал	-9744
▁команду	-9745
▁корабль	-9746
▁крупные	-9747
▁назвали	-9748
▁народов	-9749
▁насилия	-9750
▁патриар	-9751
▁природе	-9752
▁работой	-9753
▁разница	-9754
▁собесед	-9755
▁столкну	-9756
▁странно	-9757
▁страшно	-9758
▁топлива	-9759
▁астронав	-9760
▁беспоряд	-9761
▁военного	-9762
▁культура	-9763
▁медленно	-9764
▁полагают	-9765
▁понимает	-9766
▁правилам	-9767
▁снижение	-9768
▁стороной	-9769
▁третьего	-9770
▁экземпля	-9771
партамента	-9772
▁Медведева	-9773
▁агентство	-9774
▁депутатов	-9775
▁регулярно	-9776
▁использует	-9777
▁крупнейших	-9778
▁проведении	-9779
▁сооружений	-9780
▁необходимых	-9781
▁руководства	-9782
▁национальных	-9783
▁соревнования	-9784
▁Толоконникова	-9785
▁принципиально	-9786
▁приблизительно	-9787
▁соответствующие	-9788
/5	-9789
ca	-9790
аа	-9791
ell	-9792
les	-9793
ogo	-9794
риж	-9795
фек	-9796
▁КП	-9797
▁ею	-9798
гель	-9799
домо	-9800
ждую	-9801
жешь	-9802
ково	-9803
сках	-9804
хотя	-9805
шала	-9806
▁Бал	-9807
▁ВВП	-9808
▁Име	-9809
▁Кли	-9810
▁Мор	-9811
▁Фер	-9812
▁Чар	-9813
▁бен	-9814
▁зла	-9815
▁кло	-9816
▁ног	-9817
▁ход	-9818
▁шум	-9819
лился	-9820
нится	-9821
чками	-9822
чника	-9823
▁Анто	-9824
▁Джей	-9825
▁Топа	-9826
▁Юрия	-9827
▁мама	-9828
▁моди	-9829
▁обез	-9830
▁осна	-9831
▁полю	-9832
▁скло	-9833
▁тира	-9834
▁углу	-9835
альная	-9836
▁Такая	-9837
▁близо	-9838
▁въезд	-9839
▁ждать	-9840
▁загру	-9841
▁имеем	-9842
▁проще	-9843
▁ребён	-9844
▁стиля	-9845
водится	-9846
приятии	-9847
▁Вертин	-9848
▁Сибири	-9849
▁Хорошо	-9850
▁австра	-9851
▁борьба	-9852
▁инвали	-9853
▁метода	-9854
▁прести	-9855
▁энерго	-9856
жительно	-9857
▁Великой	-9858
▁Впервые	-9859
▁Главное	-9860
▁Русской	-9861
▁высокий	-9862
▁инвесто	-9863
▁мастера	-9864
▁надеюсь	-9865
▁оценкам	-9866
▁передви	-9867
▁провели	-9868
▁проекте	-9869
▁районов	-9870
▁реализу	-9871
▁рекламу	-9872
▁считали	-9873
конфуциан	-9874
▁введении	-9875
▁достигну	-9876
▁изменить	-9877
▁подлежат	-9878
▁подобное	-9879
▁полноцен	-9880
▁признаки	-9881
▁проводит	-9882
▁решением	-9883
▁созданию	-9884
▁сотрудни	-9885
▁уполномо	-9886
▁Евросоюза	-9887
▁обращение	-9888
▁положений	-9889
▁построить	-9890
▁правитель	-9891
▁рекоменду	-9892
▁сохранить	-9893
▁восприятия	-9894
▁нахождения	-9895
▁собираются	-9896
▁впечатление	-9897
▁действовать	-9898
▁избирателей	-9899
▁религиозных	-9900
▁Министерства	-9901
▁высказывания	-9902
7,	-9903
ee	-9904
Лю	-9905
Хо	-9906
Че	-9907
яр	-9908
▁e	-9909
aya	-9910
tem	-9911
бки	-9912
вах	-9913
дик	-9914
нья	-9915
рте	-9916
руд	-9917
спа	-9918
хло	-9919
▁//	-9920
▁Ль	-9921
▁Уо	-9922
roup	-9923
Йорк	-9924
виду	-9925
вные	-9926
гром	-9927
ливо	-9928
пель	-9929
чуть	-9930
▁---	-9931
▁Вар	-9932
▁Нам	-9933
▁Уил	-9934
▁стё	-9935
гнори	-9936
медиа	-9937
стого	-9938
▁Веро	-9939
▁Клин	-9940
▁ФИДЕ	-9941
▁бары	-9942
▁беру	-9943
▁веща	-9944
▁вред	-9945
▁деви	-9946
▁идеа	-9947
▁кофе	-9948
▁навы	-9949
▁огра	-9950
▁скри	-9951
▁спон	-9952
вристи	-9953
тилась	-9954
▁Кирил	-9955
▁Отече	-9956
▁возле	-9957
▁годом	-9958
▁ехать	-9959
▁марки	-9960
▁мысле	-9961
▁общих	-9962
▁ослож	-9963
▁отста	-9964
▁полёт	-9965
▁порой	-9966
▁почув	-9967
▁предо	-9968
▁сидит	-9969
▁содей	-9970
▁эваку	-9971
явление	-9972
▁Другие	-9973
▁винова	-9974
▁главой	-9975
▁закону	-9976
▁минуту	-9977
▁обойти	-9978
▁опозна	-9979
▁оспари	-9980
▁победу	-9981
▁приста	-9982
▁прошли	-9983
▁россия	-9984
▁страда	-9985
▁тяжело	-9986
▁январе	-9987
тическое	-9988
▁Королев	-9989
▁Юнайтед	-9990
▁вернуть	-9991
▁возраст	-9992
▁другому	-9993
▁простых	-9994
▁режиссе	-9995
▁решению	-9996
▁русским	-9997
▁создает	-9998
▁счастья	-9999
▁Большого	-10000
▁выставки	-10001
▁избежать	-10002
▁известны	-10003
▁мирового	-10004
▁отдельно	-10005
▁пообещал	-10006
▁согласия	-10007
▁составил	-10008
▁музыканты	-10009
▁признание	-10010
▁английском	-10011
▁музыкантов	-10012
▁разработку	-10013
▁территорий	-10014
▁заболевания	-10015
▁показателей	-10016
▁электроэнер	-10017
▁изготовления	-10018
▁популярность	-10019
▁представлять	-10020
▁собственника	-10021
▁соответствие	-10022
▁человеческой	-10023
▁независимость	-10024
▁преподаватель	-10025
▁дополнительных	-10026
▁представителями	-10027
6,	-10028
93	-10029
От	-10030
ТВ	-10031
яз	-10032
лес	-10033
лот	-10034
наи	-10035
нях	-10036
▁5,	-10037
▁Эн	-10038
Бара	-10039
дачи	-10040
зией	-10041
кера	-10042
мили	-10043
мова	-10044
рную	-10045
сель	-10046
цева	-10047
▁Дар	-10048
▁Жур	-10049
▁Хор	-10050
▁бой	-10051
▁оза	-10052
▁пиа	-10053
▁чай	-10054
▁чте	-10055
▁эро	-10056
зобра	-10057
ковым	-10058
мысли	-10059
нутся	-10060
скони	-10061
▁Азии	-10062
▁Един	-10063
▁Сист	-10064
▁Суде	-10065
▁дога	-10066
▁допу	-10067
▁кури	-10068
▁нала	-10069
▁птиц	-10070
▁ухуд	-10071
▁фило	-10072
возгла	-10073
дочной	-10074
пустил	-10075
чивать	-10076
щенных	-10077
▁Игорь	-10078
▁Норве	-10079
▁вещей	-10080
▁видам	-10081
▁звуча	-10082
▁карма	-10083
▁кровь	-10084
▁лекар	-10085
▁огонь	-10086
▁погру	-10087
▁раско	-10088
▁серий	-10089
▁спать	-10090
▁ссыла	-10091
▁столк	-10092
▁сферы	-10093
▁улыба	-10094
▁читал	-10095
▁Британ	-10096
▁Роберт	-10097
▁Финлян	-10098
▁борьбу	-10099
▁воздух	-10100
▁вперёд	-10101
▁довери	-10102
▁машина	-10103
▁нелега	-10104
▁прочие	-10105
▁размыш	-10106
▁службу	-10107
▁создал	-10108
▁увлека	-10109
▁учёные	-10110
женности	-10111
ничество	-10112
ствовала	-10113
▁Испании	-10114
▁генерал	-10115
▁изданий	-10116
▁инциден	-10117
▁меньшей	-10118
▁несчаст	-10119
▁основой	-10120
▁острове	-10121
▁пограни	-10122
▁покрови	-10123
▁полиция	-10124
▁сервиса	-10125
тическими	-10126
▁Анатолий	-10127
▁Необходи	-10128
▁достовер	-10129
▁заметить	-10130
▁изобрази	-10131
▁комплекс	-10132
▁контента	-10133
▁называть	-10134
▁началось	-10135
▁областях	-10136
▁передать	-10137
▁подлежит	-10138
▁преодоле	-10139
▁вспомнить	-10140
▁источники	-10141
▁наказания	-10142
▁некоторым	-10143
▁рекоменда	-10144
конференции	-10145
▁безусловно	-10146
▁конкретных	-10147
▁нарушением	-10148
▁помещениях	-10149
▁постановки	-10150
▁физических	-10151
▁встречается	-10152
▁встречаются	-10153
▁компьютеров	-10154
▁потребления	-10155
▁электронных	-10156
▁политические	-10157
▁популярности	-10158
▁международным	-10159
▁удовлетворения	-10160
▁воспользоваться	-10161
az	-10162
ud	-10163
йт	-10164
ark	-10165
for	-10166
лят	-10167
сад	-10168
хам	-10169
шат	-10170
▁GP	-10171
▁Me	-10172
▁МА	-10173
▁ля	-10174
▁эм	-10175
▁эн	-10176
блей	-10177
гала	-10178
нома	-10179
оном	-10180
стки	-10181
такт	-10182
тена	-10183
шной	-10184
▁ДНК	-10185
▁Ква	-10186
▁МИД	-10187
▁гло	-10188
▁рей	-10189
вному	-10190
гляды	-10191
етики	-10192
лочки	-10193
ненно	-10194
стоев	-10195
▁1986	-10196
▁Mail	-10197
▁http	-10198
▁Воло	-10199
▁Гага	-10200
▁КНДР	-10201
▁Тихо	-10202
▁благ	-10203
▁вере	-10204
▁вниз	-10205
▁воле	-10206
▁заря	-10207
▁папа	-10208
▁слег	-10209
▁типо	-10210
▁труп	-10211
ведена	-10212
парати	-10213
ченной	-10214
▁Крыма	-10215
▁Мария	-10216
▁карто	-10217
▁легче	-10218
▁неред	-10219
▁ритуа	-10220
▁улицы	-10221
▁факты	-10222
Юнайтед	-10223
лускони	-10224
▁будучи	-10225
▁взрыва	-10226
▁доходы	-10227
▁кольцо	-10228
▁ответы	-10229
▁подклю	-10230
▁русско	-10231
▁сконча	-10232
ковского	-10233
▁августе	-10234
▁альбома	-10235
▁инженер	-10236
▁планеты	-10237
▁приятно	-10238
▁равнове	-10239
▁рациона	-10240
▁сильнее	-10241
▁хорошие	-10242
▁экипажа	-10243
▁Примерно	-10244
▁большими	-10245
▁журналов	-10246
▁заключён	-10247
▁здоровье	-10248
▁интенсив	-10249
▁обладают	-10250
▁ответить	-10251
▁отмечают	-10252
▁поговори	-10253
▁подробно	-10254
▁понимают	-10255
▁проведён	-10256
▁рейтинге	-10257
▁средневе	-10258
▁человеко	-10259
▁Несколько	-10260
▁аудиторию	-10261
▁благополу	-10262
▁выступать	-10263
▁используя	-10264
▁отделения	-10265
▁признания	-10266
▁реализова	-10267
▁чиновники	-10268
▁библиотеки	-10269
▁количестве	-10270
▁ликвидации	-10271
▁отличаются	-10272
▁разработке	-10273
▁российская	-10274
▁сообщество	-10275
▁чемпионата	-10276
▁Возрождения	-10277
▁десятилетия	-10278
▁технических	-10279
▁уведомления	-10280
▁программного	-10281
▁представителя	-10282
▁преимущественно	-10283
be	-10284
Ру	-10285
рк	-10286
_38	-10287
gra	-10288
sii	-10289
Экс	-10290
ерь	-10291
зам	-10292
зри	-10293
мся	-10294
неш	-10295
нны	-10296
пку	-10297
сны	-10298
теа	-10299
▁4,	-10300
▁OS	-10301
▁Ее	-10302
andr	-10303
tive	-10304
Азия	-10305
боры	-10306
вики	-10307
екси	-10308
жина	-10309
льше	-10310
пами	-10311
тино	-10312
цени	-10313
▁600	-10314
▁Кие	-10315
▁Спо	-10316
▁бог	-10317
▁вои	-10318
▁гим	-10319
▁гли	-10320
▁чёт	-10321
▁эль	-10322
▁юно	-10323
зовой	-10324
испол	-10325
остро	-10326
стрия	-10327
цвета	-10328
щиком	-10329
▁Воль	-10330
▁Груп	-10331
▁Изда	-10332
▁КоАП	-10333
▁Мето	-10334
▁НАСА	-10335
▁веры	-10336
▁внед	-10337
вающей	-10338
провод	-10339
тланти	-10340
фологи	-10341
▁Inter	-10342
▁Акаде	-10343
▁Кипри	-10344
▁Народ	-10345
▁Ответ	-10346
▁альян	-10347
▁выбро	-10348
▁гипер	-10349
▁груди	-10350
▁добра	-10351
▁крепо	-10352
▁любые	-10353
▁объем	-10354
▁объём	-10355
▁одних	-10356
▁платы	-10357
▁приба	-10358
▁самоо	-10359
▁сидел	-10360
▁спрос	-10361
▁схемы	-10362
▁фонем	-10363
писание	-10364
работка	-10365
▁Париже	-10366
▁Церков	-10367
▁автобу	-10368
▁видели	-10369
▁визита	-10370
▁восста	-10371
▁выводу	-10372
▁гендер	-10373
▁детали	-10374
▁контак	-10375
▁машине	-10376
▁местом	-10377
▁нежели	-10378
▁обвиня	-10379
▁оценку	-10380
▁посеща	-10381
▁правом	-10382
▁силами	-10383
▁слегка	-10384
▁считал	-10385
▁хотите	-10386
▁Большой	-10387
▁Евгений	-10388
▁Мадонна	-10389
▁Соответ	-10390
▁высоких	-10391
▁началом	-10392
▁однажды	-10393
▁понятий	-10394
▁приказа	-10395
▁продажу	-10396
▁прокуро	-10397
▁строить	-10398
▁увеличе	-10399
▁экспеди	-10400
▁автостоп	-10401
▁гасителя	-10402
▁граждани	-10403
▁делается	-10404
▁западной	-10405
▁изучения	-10406
▁космонав	-10407
▁основным	-10408
▁открытия	-10409
▁поставил	-10410
▁сомнения	-10411
казывается	-10412
▁бессмысле	-10413
▁благоприя	-10414
▁мобильных	-10415
▁обработки	-10416
▁появление	-10417
▁признании	-10418
▁структуру	-10419
▁вступления	-10420
▁известного	-10421
▁иностранца	-10422
▁исполнении	-10423
▁километров	-10424
▁проводится	-10425
▁учреждение	-10426
▁английского	-10427
▁заместитель	-10428
▁оказываются	-10429
▁прекращении	-10430
▁противоречи	-10431
▁специалисты	-10432
▁технические	-10433
▁недостаточно	-10434
▁определяются	-10435
▁пользователь	-10436
▁заинтересован	-10437
▁муниципальных	-10438
▁распространён	-10439
▁экономические	-10440
69	-10441
Би	-10442
ЕЛ	-10443
ЕН	-10444
ОО	-10445
РУ	-10446
ФА	-10447
Ян	-10448
ect	-10449
ove	-10450
гин	-10451
гор	-10452
хая	-10453
шеб	-10454
щет	-10455
▁ГУ	-10456
2011	-10457
ital	-10458
olog	-10459
дора	-10460
жисс	-10461
мита	-10462
тины	-10463
утбу	-10464
▁70-	-10465
▁XVI	-10466
▁Объ	-10467
▁Пас	-10468
▁Сэм	-10469
▁ура	-10470
ashen	-10471
близи	-10472
преки	-10473
▁1995	-10474
▁Высо	-10475
▁Деву	-10476
▁Поро	-10477
▁взры	-10478
▁евре	-10479
▁имея	-10480
▁июле	-10481
▁озву	-10482
▁ряде	-10483
▁фаль	-10484
▁этап	-10485
вилась	-10486
частью	-10487
▁Алехи	-10488
▁Дэвид	-10489
▁Ирана	-10490
▁Монго	-10491
▁Филип	-10492
▁ведут	-10493
▁видом	-10494
▁гидро	-10495
▁звуко	-10496
▁испан	-10497
▁кокаи	-10498
▁нераз	-10499
▁носит	-10500
▁прихо	-10501
▁самих	-10502
▁склон	-10503
▁стиле	-10504
▁точку	-10505
водство	-10506
еспособ	-10507
▁Христо	-10508
▁берегу	-10509
▁боевых	-10510
▁всяком	-10511
▁короля	-10512
▁побере	-10513
▁растор	-10514
▁сквозь	-10515
▁словом	-10516
▁служба	-10517
▁физики	-10518
ровались	-10519
тельному	-10520
ционеров	-10521
▁автоном	-10522
▁кардина	-10523
▁конкурс	-10524
▁контрак	-10525
▁научной	-10526
▁начался	-10527
▁неплохо	-10528
▁обязаны	-10529
▁останов	-10530
▁платфор	-10531
▁полного	-10532
▁поможет	-10533
▁попасть	-10534
▁районах	-10535
▁Проблема	-10536
▁западных	-10537
▁конфликт	-10538
▁помогает	-10539
▁приходят	-10540
▁сущности	-10541
▁наложение	-10542
▁обыкновен	-10543
▁первонача	-10544
▁поддержке	-10545
▁постсовет	-10546
▁принимают	-10547
▁разговора	-10548
▁свободных	-10549
▁подтвержда	-10550
▁проживания	-10551
▁военнослужа	-10552
▁наблюдается	-10553
▁направление	-10554
▁специальные	-10555
▁сторонников	-10556
▁обязательства	-10557
▁эффективность	-10558
▁многочисленные	-10559
▁промышленности	-10560
.»	-10561
73	-10562
ft	-10563
РИ	-10564
зю	-10565
ast	-10566
ity	-10567
ony	-10568
put	-10569
бии	-10570
вут	-10571
жан	-10572
жья	-10573
рип	-10574
риф	-10575
слы	-10576
тав	-10577
тол	-10578
шав	-10579
▁De	-10580
▁Ст	-10581
zhim	-10582
боре	-10583
лама	-10584
мода	-10585
рафи	-10586
рным	-10587
сети	-10588
сным	-10589
тань	-10590
▁Вен	-10591
▁Сла	-10592
▁Смо	-10593
▁Учё	-10594
▁Шве	-10595
▁Эль	-10596
▁бол	-10597
▁гря	-10598
▁епи	-10599
▁хле	-10600
▁хло	-10601
happy	-10602
небре	-10603
несла	-10604
новых	-10605
слежи	-10606
стика	-10607
щенко	-10608
▁1992	-10609
▁Пожа	-10610
▁Свет	-10611
▁гале	-10612
▁кода	-10613
▁обру	-10614
▁поми	-10615
▁пони	-10616
▁урав	-10617
Коммер	-10618
альном	-10619
дности	-10620
матери	-10621
рского	-10622
спорта	-10623
челове	-10624
щенные	-10625
▁Times	-10626
▁Анали	-10627
▁Майкл	-10628
▁Макси	-10629
▁верно	-10630
▁ветра	-10631
▁вышли	-10632
▁декла	-10633
▁делом	-10634
▁живёт	-10635
▁занял	-10636
▁итоги	-10637
▁некий	-10638
▁обоих	-10639
▁подру	-10640
▁прого	-10641
▁разво	-10642
▁смарт	-10643
▁черты	-10644
ведению	-10645
▁Генера	-10646
▁блестя	-10647
▁вектор	-10648
▁вообра	-10649
▁всякий	-10650
▁декора	-10651
▁коллег	-10652
▁охраны	-10653
▁пришла	-10654
▁прочим	-10655
▁псевдо	-10656
▁разным	-10657
▁сталки	-10658
▁чтения	-10659
рованное	-10660
▁Израиля	-10661
▁Патриар	-10662
▁африкан	-10663
▁впереди	-10664
▁деталей	-10665
▁достичь	-10666
▁раздела	-10667
▁разделя	-10668
▁смотрел	-10669
▁смотрит	-10670
▁собрать	-10671
▁третьем	-10672
▁уровней	-10673
▁учителя	-10674
▁благодар	-10675
▁навсегда	-10676
▁новостей	-10677
▁принятие	-10678
▁свойство	-10679
▁страницы	-10680
▁художник	-10681
стического	-10682
▁Википедии	-10683
▁ближайшие	-10684
▁исключено	-10685
▁следующих	-10686
▁экономика	-10687
▁Существует	-10688
▁находились	-10689
▁персонажей	-10690
▁полномочия	-10691
▁финансовых	-10692
▁обязанность	-10693
▁отсутствует	-10694
▁потребитель	-10695
▁прекращения	-10696
▁разобраться	-10697
▁результатам	-10698
▁формируется	-10699
▁центральной	-10700
▁собственность	-10701
▁использоваться	-10702
.1	-10703
_-	-10704
oj	-10705
ФЗ	-10706
=50	-10707
_19	-10708
out	-10709
pri	-10710
stx	-10711
Сер	-10712
Ско	-10713
ТАР	-10714
дан	-10715
зен	-10716
мий	-10717
рда	-10718
чив	-10719
▁Sh	-10720
▁Сю	-10721
▁Уэ	-10722
roid	-10723
Кино	-10724
валь	-10725
вень	-10726
вный	-10727
гора	-10728
лади	-10729
нков	-10730
тору	-10731
▁10%	-10732
▁Кня	-10733
▁МГУ	-10734
▁отъ	-10735
▁пей	-10736
▁рук	-10737
▁сно	-10738
▁схо	-10739
mystx	-10740
выбор	-10741
ддафи	-10742
дении	-10743
десят	-10744
рений	-10745
слуши	-10746
струи	-10747
талки	-10748
тером	-10749
тябрь	-10750
щался	-10751
▁Любо	-10752
▁Мака	-10753
▁Обще	-10754
▁Сама	-10755
▁жены	-10756
▁жиль	-10757
▁крым	-10758
▁мега	-10759
▁мило	-10760
▁мэра	-10761
▁сига	-10762
▁суду	-10763
женной	-10764
зирует	-10765
ленный	-10766
ренной	-10767
ющееся	-10768
▁Group	-10769
▁Арген	-10770
▁Брази	-10771
▁Новой	-10772
▁Позже	-10773
▁вдоль	-10774
▁ведет	-10775
▁крими	-10776
▁поход	-10777
▁правя	-10778
▁свыше	-10779
▁сетей	-10780
▁слухи	-10781
▁среда	-10782
▁учёте	-10783
ваемого	-10784
вающего	-10785
ностями	-10786
▁Вертов	-10787
▁Европу	-10788
▁Пугаче	-10789
▁абсурд	-10790
▁важное	-10791
▁городу	-10792
▁древне	-10793
▁золота	-10794
▁каждую	-10795
▁личных	-10796
▁ноутбу	-10797
▁отража	-10798
▁связан	-10799
▁секунд	-10800
▁удержа	-10801
▁успели	-10802
▁частиц	-10803
тивность	-10804
▁выбрать	-10805
▁высокие	-10806
▁главные	-10807
▁наличия	-10808
▁позиций	-10809
▁пределы	-10810
▁согласо	-10811
▁великоле	-10812
▁говорила	-10813
▁описания	-10814
▁переводе	-10815
▁премьера	-10816
▁середины	-10817
▁собрание	-10818
▁составит	-10819
▁Последний	-10820
▁должности	-10821
▁известные	-10822
▁испытания	-10823
▁местности	-10824
▁непонятно	-10825
▁нынешнего	-10826
▁открытого	-10827
▁поставлен	-10828
▁следующей	-10829
▁состоянию	-10830
▁Берлускони	-10831
▁Советского	-10832
▁активности	-10833
▁английский	-10834
▁появляются	-10835
▁приложения	-10836
▁таможенных	-10837
▁телеканала	-10838
▁финансовой	-10839
▁фундамента	-10840
▁энергетики	-10841
▁изображение	-10842
▁конкретного	-10843
▁удовлетворя	-10844
▁поддерживать	-10845
▁предоставить	-10846
▁произведение	-10847
▁Толоконниковой	-10848
▁предпринимателя	-10849
1-	-10850
MS	-10851
Ru	-10852
ba	-10853
oz	-10854
Гу	-10855
Су	-10856
бю	-10857
▁&	-10858
▁h	-10859
▁ё	-10860
all	-10861
ult	-10862
май	-10863
мок	-10864
нау	-10865
пал	-10866
уме	-10867
▁45	-10868
▁Gu	-10869
Пере	-10870
дуар	-10871
еман	-10872
форд	-10873
▁Лен	-10874
▁Луи	-10875
▁Нем	-10876
▁Фак	-10877
▁взи	-10878
▁жел	-10879
▁пры	-10880
▁рюк	-10881
▁уса	-10882
▁эко	-10883
1%87%	-10884
брасы	-10885
мерть	-10886
ногра	-10887
порти	-10888
раясь	-10889
ровых	-10890
рский	-10891
▁Похо	-10892
▁бабу	-10893
▁видо	-10894
▁выпи	-10895
▁далё	-10896
▁днях	-10897
▁мерт	-10898
▁начн	-10899
▁обма	-10900
▁пери	-10901
▁приё	-10902
▁рука	-10903
▁став	-10904
▁шанс	-10905
▁швед	-10906
альную	-10907
дневно	-10908
имость	-10909
ковать	-10910
льский	-10911
льской	-10912
обелев	-10913
римина	-10914
тового	-10915
точные	-10916
▁1990-	-10917
▁Вален	-10918
▁Денис	-10919
▁Индии	-10920
▁Коман	-10921
▁Макла	-10922
▁Манда	-10923
▁балан	-10924
▁волок	-10925
▁всерь	-10926
▁драма	-10927
▁женой	-10928
▁заблу	-10929
▁избра	-10930
▁княги	-10931
▁назем	-10932
▁нигде	-10933
▁отчет	-10934
▁плака	-10935
▁погре	-10936
▁покло	-10937
▁пости	-10938
▁разби	-10939
▁регла	-10940
▁слабы	-10941
▁терак	-10942
▁точка	-10943
▁узнал	-10944
▁устро	-10945
▁учили	-10946
▁фикси	-10947
▁хотим	-10948
стояние	-10949
▁Вскоре	-10950
▁Западе	-10951
▁Причем	-10952
▁близко	-10953
▁важным	-10954
▁версию	-10955
▁девять	-10956
▁жизнью	-10957
▁лучший	-10958
▁манифе	-10959
▁нейтра	-10960
▁осторо	-10961
▁оттуда	-10962
▁площад	-10963
▁спасти	-10964
▁старта	-10965
▁трудом	-10966
▁фондов	-10967
Коммерса	-10968
женность	-10969
▁Android	-10970
▁выразил	-10971
▁галакти	-10972
▁команди	-10973
▁платить	-10974
▁подумал	-10975
▁позиция	-10976
▁приехал	-10977
▁синтеза	-10978
▁ставить	-10979
▁требуют	-10980
▁ядерной	-10981
отношения	-10982
▁влиянием	-10983
▁добавить	-10984
▁капитала	-10985
▁напрямую	-10986
▁перехода	-10987
▁платежей	-10988
▁привлечь	-10989
▁проходят	-10990
▁процессы	-10991
▁сепарати	-10992
▁хорошего	-10993
▁ценность	-10994
▁Благодаря	-10995
▁Порошенко	-10996
▁аудитория	-10997
▁возможным	-10998
▁дискуссии	-10999
▁комплекса	-11000
▁понимания	-11001
▁появилось	-11002
▁предметов	-11003
▁претенден	-11004
▁Московской	-11005
▁инициативе	-11006
▁оставаться	-11007
▁превосходи	-11008
▁продолжить	-11009
▁собственную	-11010
▁современном	-11011
▁спортсменов	-11012
▁космического	-11013
▁поддерживает	-11014
▁технического	-11015
].	-11016
ЕС	-11017
The	-11018
ala	-11019
bes	-11020
con	-11021
ens	-11022
ill	-11023
pol	-11024
rea	-11025
гео	-11026
жди	-11027
сня	-11028
уна	-11029
фик	-11030
хлю	-11031
хот	-11032
▁Сэ	-11033
▁УК	-11034
kika	-11035
Союз	-11036
мами	-11037
мены	-11038
мога	-11039
стил	-11040
стся	-11041
тала	-11042
ткой	-11043
▁700	-11044
▁GPS	-11045
▁Дор	-11046
▁Тро	-11047
▁ате	-11048
▁дре	-11049
▁зао	-11050
▁соз	-11051
▁фер	-11052
вляли	-11053
групп	-11054
крепи	-11055
ствию	-11056
чёрки	-11057
▁Иран	-11058
▁Коль	-11059
▁Лебе	-11060
▁Маль	-11061
▁Моло	-11062
▁Нака	-11063
▁Холи	-11064
▁брау	-11065
▁буль	-11066
▁даты	-11067
▁душа	-11068
▁заро	-11069
▁иску	-11070
▁насы	-11071
▁обли	-11072
▁отпу	-11073
▁плюс	-11074
▁прин	-11075
▁сосу	-11076
▁спас	-11077
▁улыб	-11078
▁фона	-11079
▁чужо	-11080
▁школ	-11081
дерлан	-11082
облада	-11083
пресси	-11084
щались	-11085
▁Думаю	-11086
▁Новая	-11087
▁Осети	-11088
▁грави	-11089
▁дорог	-11090
▁исчер	-11091
▁наука	-11092
▁общим	-11093
▁общую	-11094
▁отрыв	-11095
▁переи	-11096
▁подар	-11097
▁прили	-11098
▁сетях	-11099
▁слове	-11100
▁ущерб	-11101
Государ	-11102
ленного	-11103
образие	-11104
▁Алексе	-11105
▁Больше	-11106
▁Законо	-11107
▁Петров	-11108
▁вклады	-11109
▁вступа	-11110
▁гигант	-11111
▁громко	-11112
▁данное	-11113
▁деревя	-11114
▁инсули	-11115
▁исчеза	-11116
▁лучшие	-11117
▁найден	-11118
▁нежела	-11119
▁осенью	-11120
▁отдела	-11121
▁плоско	-11122
▁повтор	-11123
▁продав	-11124
▁развер	-11125
▁решила	-11126
▁символ	-11127
▁тысяче	-11128
▁Калифор	-11129
▁всякого	-11130
▁главная	-11131
▁игроков	-11132
▁имеющие	-11133
▁коммуна	-11134
▁магазин	-11135
▁мотивам	-11136
▁оскорби	-11137
▁открыть	-11138
▁перекры	-11139
▁перемен	-11140
▁проекту	-11141
▁пройдет	-11142
▁пролета	-11143
▁чувстви	-11144
▁экспози	-11145
▁беспокой	-11146
▁заговори	-11147
▁занимают	-11148
▁подверга	-11149
▁практику	-11150
▁придется	-11151
▁пытались	-11152
▁режиссёр	-11153
▁Интернете	-11154
▁выполнять	-11155
▁источника	-11156
▁консульта	-11157
▁нормально	-11158
▁объектами	-11159
▁персонажа	-11160
▁увеличить	-11161
▁философии	-11162
▁журналисты	-11163
▁исключения	-11164
▁катастрофы	-11165
▁обсуждения	-11166
▁российском	-11167
▁увеличение	-11168
▁учреждений	-11169
▁потребность	-11170
▁законопроект	-11171
▁обслуживания	-11172
▁продолжается	-11173
▁университете	-11174
▁формирование	-11175
▁правительству	-11176
▁предоставления	-11177
▁представляется	-11178
▁финансирования	-11179
/2	-11180
84	-11181
ku	-11182
пь	-11183
:31	-11184
_20	-11185
end	-11186
ire	-11187
man	-11188
pen	-11189
вие	-11190
жеб	-11191
жке	-11192
пия	-11193
хан	-11194
хео	-11195
хин	-11196
▁9.	-11197
▁Ам	-11198
▁Кэ	-11199
▁вв	-11200
1%81	-11201
inux	-11202
ment	-11203
Золо	-11204
Сеть	-11205
ТАСС	-11206
даль	-11207
жима	-11208
комо	-11209
лено	-11210
льны	-11211
мить	-11212
сугу	-11213
ткий	-11214
чник	-11215
▁10.	-11216
▁ООО	-11217
▁Тай	-11218
▁Хан	-11219
▁ани	-11220
▁бур	-11221
▁поо	-11222
▁сад	-11223
1%84%	-11224
Йорке	-11225
влечь	-11226
гнуть	-11227
говой	-11228
демар	-11229
лизма	-11230
лливу	-11231
менов	-11232
рению	-11233
ровую	-11234
сками	-11235
шками	-11236
▁блог	-11237
▁бюро	-11238
▁воде	-11239
▁днем	-11240
▁духе	-11241
▁заку	-11242
▁зелё	-11243
▁порт	-11244
▁сена	-11245
▁тонн	-11246
▁уйти	-11247
▁фрак	-11248
Компью	-11249
ваемые	-11250
вающая	-11251
доволь	-11252
летней	-11253
лимпиа	-11254
ритори	-11255
ствами	-11256
ченная	-11257
▁Джона	-11258
▁Марка	-11259
▁Навер	-11260
▁Нехлю	-11261
▁Нужно	-11262
▁Эдуар	-11263
▁ветер	-11264
▁видим	-11265
▁запас	-11266
▁излиш	-11267
▁ничто	-11268
▁обеих	-11269
▁общая	-11270
▁патен	-11271
▁почте	-11272
▁прика	-11273
▁снять	-11274
▁сцену	-11275
▁товар	-11276
▁уволь	-11277
▁эфира	-11278
простра	-11279
▁Другой	-11280
▁Ничего	-11281
▁Серафи	-11282
▁вечера	-11283
▁воздуш	-11284
▁выводы	-11285
▁живопи	-11286
▁измери	-11287
▁какими	-11288
▁картин	-11289
▁лауреа	-11290
▁лекции	-11291
▁оценке	-11292
▁перено	-11293
▁прямой	-11294
▁симпто	-11295
▁угрозу	-11296
▁Василий	-11297
▁Каддафи	-11298
▁Министр	-11299
▁Холидей	-11300
▁автором	-11301
▁антропо	-11302
▁аэропор	-11303
▁границу	-11304
▁депутат	-11305
▁занятие	-11306
▁изложен	-11307
▁нередко	-11308
▁оценить	-11309
▁провока	-11310
▁расстре	-11311
▁санитар	-11312
▁слушать	-11313
▁счастью	-11314
▁хорошее	-11315
▁Германия	-11316
▁Соединён	-11317
▁введение	-11318
▁востребо	-11319
▁давление	-11320
▁договору	-11321
▁оскорбля	-11322
▁открытый	-11323
▁передает	-11324
▁передаче	-11325
▁просьбой	-11326
▁точности	-11327
▁убийство	-11328
▁читатель	-11329
▁Восточной	-11330
▁вынуждены	-11331
▁закономер	-11332
▁лингвисти	-11333
▁потенциал	-11334
▁проверить	-11335
▁произошед	-11336
▁своеобраз	-11337
▁социологи	-11338
▁сравнения	-11339
▁указывают	-11340
▁фестиваль	-11341
▁Администра	-11342
▁демократии	-11343
▁занимаются	-11344
▁исполнение	-11345
▁кандидатов	-11346
▁немедленно	-11347
▁пожалуйста	-11348
▁пользуются	-11349
▁согласился	-11350
▁социальная	-11351
▁внутреннего	-11352
▁необходимым	-11353
▁собственные	-11354
▁таможенного	-11355
▁экземпляров	-11356
▁инструментов	-11357
▁миграционной	-11358
▁определенных	-11359
▁особенностей	-11360
▁осуществлять	-11361
▁политический	-11362
▁потребностей	-11363
▁человечества	-11364
▁юридического	-11365
▁миграционного	-11366
▁постановления	-11367
▁эффективности	-11368
6-	-11369
8-	-11370
by	-11371
oh	-11372
pt	-11373
Бы	-11374
ГО	-11375
ОЛ	-11376
бл	-11377
_-_	-11378
ase	-11379
ess	-11380
gla	-11381
ory	-11382
sin	-11383
Пра	-11384
жур	-11385
мощ	-11386
чко	-11387
ьет	-11388
▁6,	-11389
▁IV	-11390
▁Un	-11391
▁Йо	-11392
▁ОС	-11393
▁Ря	-11394
▁Сы	-11395
ence	-11396
ours	-11397
горе	-11398
дная	-11399
мона	-11400
нора	-11401
нюдь	-11402
таны	-11403
тают	-11404
цена	-11405
▁Вся	-11406
▁жду	-11407
▁моё	-11408
0%90%	-11409
аньше	-11410
грева	-11411
лкова	-11412
льник	-11413
нному	-11414
новый	-11415
тория	-11416
чился	-11417
чники	-11418
▁(200	-11419
▁NASA	-11420
▁Богу	-11421
▁Гера	-11422
▁ИТАР	-11423
▁Кино	-11424
▁Мало	-11425
▁Мате	-11426
▁Отец	-11427
▁Поря	-11428
▁гита	-11429
▁даст	-11430
▁зали	-11431
▁коки	-11432
▁лест	-11433
▁мозг	-11434
▁мыше	-11435
▁несу	-11436
▁пира	-11437
▁поез	-11438
▁смяг	-11439
▁судя	-11440
▁типи	-11441
▁фено	-11442
▁цита	-11443
▁часы	-11444
▁шаги	-11445
mashen	-11446
бовать	-11447
держки	-11448
стеров	-11449
употре	-11450
шаются	-11451
▁XVIII	-11452
▁Соеди	-11453
▁аудио	-11454
▁возме	-11455
▁газет	-11456
▁голов	-11457
▁замуж	-11458
▁играл	-11459
▁карту	-11460
▁найде	-11461
▁погло	-11462
▁прими	-11463
▁стару	-11464
▁тетра	-11465
▁цикла	-11466
менение	-11467
▁Геракл	-11468
▁Извест	-11469
▁адресу	-11470
▁аренды	-11471
▁архите	-11472
▁братья	-11473
▁валюты	-11474
▁всяких	-11475
▁высших	-11476
▁готова	-11477
▁дважды	-11478
▁делега	-11479
▁домини	-11480
▁дорога	-11481
▁запись	-11482
▁конгре	-11483
▁менять	-11484
▁мешает	-11485
▁обмени	-11486
▁орудий	-11487
▁печати	-11488
▁платье	-11489
▁подзем	-11490
▁подопе	-11491
▁приклю	-11492
▁пришло	-11493
▁репети	-11494
▁слышал	-11495
▁совеща	-11496
▁судьба	-11497
▁тренер	-11498
▁хватит	-11499
▁экстра	-11500
▁эмигра	-11501
mashenic	-11502
Интернет	-11503
▁Абхазии	-11504
▁Достоев	-11505
▁Николая	-11506
▁Сильвер	-11507
▁англича	-11508
▁безрабо	-11509
▁вывести	-11510
▁занятий	-11511
▁комбина	-11512
▁местной	-11513
▁назнача	-11514
▁отвечал	-11515
▁падения	-11516
▁поездки	-11517
▁получат	-11518
▁пояснил	-11519
▁размера	-11520
▁расширя	-11521
▁реформы	-11522
▁трактов	-11523
▁условии	-11524
▁чемпион	-11525
▁явлений	-11526
▁воспроиз	-11527
▁выделить	-11528
▁миссионе	-11529
▁наследия	-11530
▁начались	-11531
▁огромные	-11532
▁отвечать	-11533
▁открытие	-11534
▁покупать	-11535
▁половину	-11536
▁пренебре	-11537
▁принятии	-11538
▁продукты	-11539
▁сообщают	-11540
▁странице	-11541
▁трагедии	-11542
▁условиям	-11543
▁учитывая	-11544
▁Последние	-11545
▁выступают	-11546
▁коллабора	-11547
▁помещении	-11548
▁поручения	-11549
▁последним	-11550
▁предсказа	-11551
▁состоялся	-11552
▁судебного	-11553
▁формально	-11554
▁инструмент	-11555
▁корпорации	-11556
▁проявления	-11557
▁результата	-11558
▁внимательно	-11559
▁выступление	-11560
▁гражданской	-11561
▁московского	-11562
▁температуры	-11563
▁Европейского	-11564
▁политическая	-11565
▁производстве	-11566
▁существовать	-11567
▁Первоначально	-11568
▁деятельностью	-11569
▁рассматривать	-11570
▁характеристик	-11571
▁предполагается	-11572
AD	-11573
ii	-11574
ВО	-11575
ТБ	-11576
аб	-11577
lya	-11578
pod	-11579
ush	-11580
Как	-11581
дав	-11582
зуи	-11583
обы	-11584
шев	-11585
▁Ro	-11586
▁Тю	-11587
▁ФИ	-11588
▁уй	-11589
воды	-11590
здно	-11591
кают	-11592
курс	-11593
лией	-11594
нева	-11595
отно	-11596
плом	-11597
тике	-11598
тьев	-11599
чают	-11600
чила	-11601
▁10-	-11602
▁Kor	-11603
▁Али	-11604
▁Бре	-11605
▁Гей	-11606
▁Джу	-11607
▁Кам	-11608
▁Мир	-11609
▁арт	-11610
▁дай	-11611
▁мла	-11612
▁оли	-11613
▁хок	-11614
Artem	-11615
chest	-11616
Колум	-11617
виков	-11618
делец	-11619
докса	-11620
ложил	-11621
магни	-11622
мести	-11623
милли	-11624
стере	-11625
▁XVII	-11626
▁Буда	-11627
▁Есте	-11628
▁Луны	-11629
▁Одно	-11630
▁Папа	-11631
▁Сочи	-11632
▁Филь	-11633
▁абза	-11634
▁базу	-11635
▁дале	-11636
▁нали	-11637
▁окре	-11638
▁отоз	-11639
▁прис	-11640
▁стер	-11641
▁хлеб	-11642
▁хули	-11643
ворить	-11644
листов	-11645
метров	-11646
точной	-11647
▁1970-	-11648
▁Lenta	-11649
▁Какие	-11650
▁Лента	-11651
▁Мекси	-11652
▁Часть	-11653
▁второ	-11654
▁массу	-11655
▁найма	-11656
▁питер	-11657
▁рюкза	-11658
▁схема	-11659
▁тюрем	-11660
льщиков	-11661
рушение	-11662
▁Красно	-11663
▁Прежде	-11664
▁Уильям	-11665
▁аварий	-11666
▁бассей	-11667
▁вперед	-11668
▁диабет	-11669
▁многим	-11670
▁модуля	-11671
▁округа	-11672
▁открыл	-11673
▁писали	-11674
▁повест	-11675
▁поворо	-11676
▁принят	-11677
▁прости	-11678
▁распла	-11679
▁склада	-11680
▁спуска	-11681
▁тысячу	-11682
▁учесть	-11683
Сколково	-11684
▁Лондоне	-11685
▁воздухе	-11686
▁коллеги	-11687
▁контент	-11688
▁олимпий	-11689
▁планшет	-11690
▁подходя	-11691
▁праздни	-11692
▁пригово	-11693
▁пригото	-11694
▁проигра	-11695
▁разнови	-11696
▁сделала	-11697
▁спасибо	-11698
▁страной	-11699
технологи	-11700
▁долгосро	-11701
▁объявила	-11702
▁окажется	-11703
▁ощущения	-11704
▁подписал	-11705
▁подразде	-11706
▁странами	-11707
▁талантли	-11708
▁географии	-11709
▁запрещено	-11710
▁множества	-11711
▁наблюдать	-11712
▁недопусти	-11713
▁оснований	-11714
▁поставили	-11715
▁правозащи	-11716
▁предстоит	-11717
▁принципов	-11718
▁развивать	-11719
▁считаются	-11720
Образование	-11721
▁корпорация	-11722
▁полученных	-11723
▁продолжать	-11724
▁сообщается	-11725
▁ограничение	-11726
▁организацию	-11727
▁присутствие	-11728
▁современные	-11729
▁температура	-11730
▁федеральных	-11731
▁Владимирович	-11732
▁неоконфуциан	-11733
▁обеспечивает	-11734
▁потребителей	-11735
▁совокупность	-11736
▁пользователям	-11737
▁информационных	-11738
▁соответствующий	-11739
71	-11740
aj	-11741
br	-11742
Ан	-11743
Бу	-11744
ЛА	-11745
др	-11746
пр	-11747
chi	-11748
бен	-11749
биз	-11750
вёз	-11751
кос	-11752
нси	-11753
рим	-11754
руй	-11755
тна	-11756
туи	-11757
▁55	-11758
▁75	-11759
▁to	-11760
▁СН	-11761
-200	-11762
воен	-11763
деше	-11764
дное	-11765
лете	-11766
▁STS	-11767
▁Был	-11768
▁Жан	-11769
▁Жен	-11770
▁Обо	-11771
▁Сти	-11772
▁кух	-11773
▁фар	-11774
0%92%	-11775
ction	-11776
Проис	-11777
генов	-11778
зовых	-11779
зопас	-11780
леопа	-11781
летов	-11782
мните	-11783
новые	-11784
новым	-11785
нятие	-11786
фонов	-11787
числя	-11788
▁1993	-11789
▁Крам	-11790
▁Крым	-11791
▁боже	-11792
▁зала	-11793
▁клад	-11794
▁клет	-11795
▁лицу	-11796
▁льго	-11797
▁мони	-11798
▁обно	-11799
▁пить	-11800
▁побо	-11801
▁раду	-11802
▁разы	-11803
▁силе	-11804
▁трой	-11805
зового	-11806
ностях	-11807
тельна	-11808
щенный	-11809
▁Всеми	-11810
▁Петра	-11811
▁ансам	-11812
▁грубо	-11813
▁досро	-11814
▁еврей	-11815
▁клима	-11816
▁нагля	-11817
▁накоп	-11818
▁нации	-11819
▁подза	-11820
▁тобой	-11821
▁тормо	-11822
▁утили	-11823
▁шансы	-11824
рактери	-11825
рически	-11826
руемого	-11827
▁Власти	-11828
▁Польши	-11829
▁Раньше	-11830
▁Яндекс	-11831
▁внешне	-11832
▁грузов	-11833
▁данная	-11834
▁единиц	-11835
▁играют	-11836
▁лидеры	-11837
▁отнюдь	-11838
▁полную	-11839
▁полёта	-11840
▁старше	-11841
▁твёрдо	-11842
▁успоко	-11843
▁языках	-11844
zhimanov	-11845
зируется	-11846
пользова	-11847
рованным	-11848
тивности	-11849
▁благода	-11850
▁больной	-11851
▁выиграл	-11852
▁глюкозы	-11853
▁древних	-11854
▁запрета	-11855
▁имеющих	-11856
▁личного	-11857
▁молодые	-11858
▁насчиты	-11859
▁пенсион	-11860
▁прочего	-11861
▁сектора	-11862
▁способы	-11863
▁удастся	-11864
▁Екатерин	-11865
▁Накануне	-11866
▁благород	-11867
▁внезапно	-11868
▁водитель	-11869
▁возникла	-11870
▁депутаты	-11871
▁землетря	-11872
▁клиентов	-11873
▁меняется	-11874
▁называли	-11875
▁памятник	-11876
▁паровоза	-11877
▁половина	-11878
▁проводят	-11879
▁развлека	-11880
▁совершил	-11881
Настроение	-11882
▁австралий	-11883
▁заседания	-11884
▁заставить	-11885
▁маленький	-11886
▁номинации	-11887
▁объясняет	-11888
▁платформы	-11889
▁понимание	-11890
▁сообщений	-11891
▁называемые	-11892
▁основанием	-11893
▁отмечается	-11894
▁подготовке	-11895
▁подсудимых	-11896
▁популярных	-11897
▁совершение	-11898
▁характерно	-11899
▁Korzhimanov	-11900
▁Афганистана	-11901
▁вероятность	-11902
▁зависимость	-11903
▁постоянного	-11904
▁приглашение	-11905
▁развивается	-11906
▁расположены	-11907
▁руководству	-11908
▁целесообраз	-11909
▁абсурдологии	-11910
▁единственным	-11911
▁использовали	-11912
▁конституцион	-11913
▁отечественной	-11914
▁руководителей	-11915
▁государственные	-11916
41	-11917
61	-11918
eb	-11919
СП	-11920
▁x	-11921
lin	-11922
noj	-11923
rav	-11924
зис	-11925
ксо	-11926
рва	-11927
сий	-11928
чна	-11929
▁4-	-11930
▁Ex	-11931
▁IT	-11932
▁ны	-11933
вное	-11934
зиат	-11935
изнь	-11936
линд	-11937
ляют	-11938
стах	-11939
чнее	-11940
ёров	-11941
▁120	-11942
▁Бат	-11943
▁Еди	-11944
▁Нау	-11945
▁Нов	-11946
▁Тру	-11947
▁Шан	-11948
▁лам	-11949
▁поу	-11950
▁худ	-11951
ведёт	-11952
ктору	-11953
лично	-11954
нское	-11955
ённый	-11956
▁1994	-11957
▁Бого	-11958
▁Физи	-11959
▁Чехи	-11960
▁амби	-11961
▁анек	-11962
▁звук	-11963
▁иско	-11964
▁кула	-11965
▁моро	-11966
▁неба	-11967
▁отзы	-11968
▁своя	-11969
▁сило	-11970
▁стой	-11971
▁утро	-11972
Москва	-11973
бизнес	-11974
ваемой	-11975
дность	-11976
тивном	-11977
▁Книга	-11978
▁Около	-11979
▁Роман	-11980
▁Судом	-11981
▁верши	-11982
▁взяли	-11983
▁вузов	-11984
▁входа	-11985
▁вышло	-11986
▁героя	-11987
▁гигие	-11988
▁запом	-11989
▁камен	-11990
▁листь	-11991
▁любую	-11992
▁матер	-11993
▁нетбу	-11994
▁попал	-11995
▁преем	-11996
▁птицы	-11997
▁сайты	-11998
▁сезон	-11999
▁серде	-12000
▁скажу	-12001
▁склад	-12002
▁трибу	-12003
▁турец	-12004
▁убеди	-12005
▁Группа	-12006
▁Европа	-12007
▁Клеопа	-12008
▁баллов	-12009
▁волшеб	-12010
▁выигры	-12011
▁группи	-12012
▁зданий	-12013
▁импуль	-12014
▁ископа	-12015
▁корпус	-12016
▁номера	-12017
▁прессе	-12018
▁принес	-12019
▁резолю	-12020
▁решено	-12021
▁смогла	-12022
▁темати	-12023
водитель	-12024
работать	-12025
скохозяй	-12026
ствовало	-12027
числения	-12028
▁Алексея	-12029
▁Аналоги	-12030
▁Законом	-12031
▁Позднее	-12032
▁артилле	-12033
▁внешних	-12034
▁высотой	-12035
▁границе	-12036
▁классов	-12037
▁контакт	-12038
▁лидером	-12039
▁моделей	-12040
▁подсист	-12041
▁примере	-12042
▁причину	-12043
▁радость	-12044
▁рестора	-12045
▁свобода	-12046
▁серебря	-12047
▁создали	-12048
▁создана	-12049
▁средний	-12050
▁статуса	-12051
▁третьей	-12052
▁уровнем	-12053
▁эвристи	-12054
▁Богороди	-12055
▁абориген	-12056
▁выходить	-12057
▁деньгами	-12058
▁недоволь	-12059
▁операций	-12060
▁откровен	-12061
▁строения	-12062
▁выражение	-12063
▁договором	-12064
▁достигает	-12065
▁заведения	-12066
▁критериев	-12067
▁позволить	-12068
▁получится	-12069
▁признаков	-12070
▁процедуры	-12071
▁сельского	-12072
▁содержать	-12073
▁недостаточ	-12074
▁обратиться	-12075
▁отказались	-12076
▁пересмотре	-12077
▁размещение	-12078
▁содержанию	-12079
▁эффективно	-12080
▁Руководство	-12081
▁достоинства	-12082
▁иностранцев	-12083
▁представлен	-12084
▁специальный	-12085
▁цивилизации	-12086
▁квалификации	-12087
▁операционной	-12088
▁осуществления	-12089
▁разработчиков	-12090
▁взаимодействие	-12091
9-	-12092
_«	-12093
ld	-12094
мь	-12095
ide	-12096
vol	-12097
wle	-12098
ака	-12099
дко	-12100
лял	-12101
нче	-12102
нье	-12103
рку	-12104
рмо	-12105
хим	-12106
▁Al	-12107
▁On	-12108
▁Вз	-12109
▁Ву	-12110
▁дя	-12111
веда	-12112
вичу	-12113
жига	-12114
меры	-12115
мией	-12116
мора	-12117
няли	-12118
хами	-12119
▁Sky	-12120
▁Жне	-12121
▁Илю	-12122
▁Сид	-12123
▁здо	-12124
▁код	-12125
▁сег	-12126
▁сми	-12127
▁съе	-12128
▁тря	-12129
грамм	-12130
жской	-12131
комен	-12132
праши	-12133
ровку	-12134
спект	-12135
щийся	-12136
▁Бере	-12137
▁Мура	-12138
▁Нава	-12139
▁Семи	-12140
▁Теле	-12141
▁вкус	-12142
▁вход	-12143
▁горы	-12144
▁гряз	-12145
▁иран	-12146
▁лета	-12147
▁озна	-12148
▁ряду	-12149
▁сказ	-12150
▁трое	-12151
rossii	-12152
вшуюся	-12153
довали	-12154
емокра	-12155
ленная	-12156
лённые	-12157
ненные	-12158
риться	-12159
чаются	-12160
▁1980-	-12161
▁Землю	-12162
▁Ираке	-12163
▁Какой	-12164
▁Павла	-12165
▁Разве	-12166
▁живой	-12167
▁звуки	-12168
▁истре	-12169
▁карта	-12170
▁любил	-12171
▁повез	-12172
▁подже	-12173
▁пошел	-12174
▁прибе	-12175
▁розни	-12176
▁стиму	-12177
▁строя	-12178
▁уважа	-12179
▁черно	-12180
ющимися	-12181
▁Кастро	-12182
▁Квадра	-12183
▁Первой	-12184
▁важный	-12185
▁верхов	-12186
▁ворота	-12187
▁законе	-12188
▁земель	-12189
▁знаков	-12190
▁крести	-12191
▁нагруз	-12192
▁нечего	-12193
▁новому	-12194
▁открыт	-12195
▁пожела	-12196
▁поняли	-12197
▁премию	-12198
▁разъяс	-12199
▁ремонт	-12200
▁спутни	-12201
▁ставит	-12202
▁старые	-12203
▁студии	-12204
▁тексто	-12205
▁фигура	-12206
▁честно	-12207
▁шаттла	-12208
нической	-12209
ствующим	-12210
формации	-12211
▁Армении	-12212
▁вызвало	-12213
▁затраты	-12214
▁исследу	-12215
▁капитан	-12216
▁конкури	-12217
▁любопыт	-12218
▁научные	-12219
▁поднять	-12220
▁признал	-12221
▁прилага	-12222
▁приняла	-12223
▁реакция	-12224
▁сделает	-12225
▁ссылкой	-12226
▁уверены	-12227
▁функцию	-12228
▁Нидерлан	-12229
▁высокого	-12230
▁доступны	-12231
▁изучение	-12232
▁искренне	-12233
▁крестьян	-12234
▁невероят	-12235
▁недалеко	-12236
▁рабочего	-12237
▁реальной	-12238
зированных	-12239
настоящему	-12240
▁известным	-12241
▁индустрии	-12242
▁обратился	-12243
▁проблемой	-12244
▁развитием	-12245
▁рекламода	-12246
▁русскоязы	-12247
▁советский	-12248
▁сократить	-12249
▁сотрудник	-12250
▁спектакль	-12251
▁стремятся	-12252
▁Дюссельдор	-12253
▁Собственно	-12254
▁желательно	-12255
▁количеству	-12256
▁непременно	-12257
▁определяют	-12258
▁остановить	-12259
▁президенту	-12260
▁расстояние	-12261
▁требование	-12262
▁увеличения	-12263
▁уголовного	-12264
▁художников	-12265
▁Особенности	-12266
▁допускается	-12267
▁музыкальных	-12268
▁перспективе	-12269
▁принимающая	-12270
▁сегодняшний	-12271
▁телевидения	-12272
▁традиционно	-12273
▁безопасность	-12274
▁официального	-12275
▁традиционных	-12276
▁установления	-12277
▁федеральными	-12278
▁чрезвычайное	-12279
▁Александрович	-12280
▁первоначально	-12281
▁экономический	-12282
▁художественной	-12283
▁свидетельствует	-12284
43	-12285
57	-12286
81	-12287
91	-12288
92	-12289
?"	-12290
АК	-12291
ой	-12292
ёй	-12293
ang	-12294
ble	-12295
has	-12296
ind	-12297
ore	-12298
Все	-12299
ане	-12300
жоу	-12301
изм	-12302
инг	-12303
лло	-12304
лос	-12305
оте	-12306
уса	-12307
шоу	-12308
▁%.	-12309
▁лы	-12310
▁сё	-12311
chen	-12312
ress	-12313
»...	-12314
дняя	-12315
етар	-12316
ндро	-12317
шкин	-12318
▁XIV	-12319
▁Аля	-12320
▁Кро	-12321
▁Лан	-12322
▁Обе	-12323
▁вно	-12324
▁лоб	-12325
▁рта	-12326
▁туа	-12327
▁шли	-12328
Восто	-12329
Когда	-12330
берга	-12331
вного	-12332
деров	-12333
зеров	-12334
ковая	-12335
около	-12336
преем	-12337
товал	-12338
тости	-12339
▁Речь	-12340
▁Сооб	-12341
▁акта	-12342
▁боги	-12343
▁брак	-12344
▁ваши	-12345
▁выса	-12346
▁дыха	-12347
▁кван	-12348
▁коли	-12349
▁моне	-12350
▁отры	-12351
▁седь	-12352
▁флаг	-12353
вязыва	-12354
делать	-12355
извест	-12356
лённых	-12357
ненный	-12358
ренных	-12359
строва	-12360
устрой	-12361
ченное	-12362
▁Linux	-12363
▁Доста	-12364
▁Зачем	-12365
▁Корея	-12366
▁Почти	-12367
▁бессо	-12368
▁буквы	-12369
▁видят	-12370
▁возвы	-12371
▁волну	-12372
▁грани	-12373
▁депре	-12374
▁живет	-12375
▁живых	-12376
▁конфи	-12377
▁невер	-12378
▁неува	-12379
▁ничем	-12380
▁обога	-12381
▁отклю	-12382
▁откро	-12383
▁перео	-12384
▁пошла	-12385
▁проза	-12386
▁служи	-12387
▁сумас	-12388
▁татар	-12389
▁ходят	-12390
▁цензу	-12391
Барадей	-12392
приетар	-12393
▁Говоря	-12394
▁Канады	-12395
▁Учёные	-12396
▁будете	-12397
▁бывших	-12398
▁волосы	-12399
▁вывода	-12400
▁дочери	-12401
▁запрос	-12402
▁защите	-12403
▁звезды	-12404
▁король	-12405
▁мелких	-12406
▁миссии	-12407
▁никуда	-12408
▁одежды	-12409
▁опусти	-12410
▁перепи	-12411
▁прошла	-12412
▁ранних	-12413
▁ресурс	-12414
▁сверху	-12415
▁сдержи	-12416
▁сердца	-12417
▁солнца	-12418
▁спорту	-12419
▁судьбы	-12420
▁ученых	-12421
▁чтение	-12422
▁Виктора	-12423
▁Иваныча	-12424
▁Нобелев	-12425
▁Однажды	-12426
▁Правила	-12427
▁большее	-12428
▁великий	-12429
▁голланд	-12430
▁деревне	-12431
▁журнале	-12432
▁журналы	-12433
▁критику	-12434
▁надежды	-12435
▁покинул	-12436
▁портрет	-12437
▁потребу	-12438
▁продаже	-12439
▁ребёнка	-12440
▁резонан	-12441
▁сложные	-12442
▁функция	-12443
президент	-12444
▁Название	-12445
▁Очевидно	-12446
▁Современ	-12447
▁агрессив	-12448
▁десятков	-12449
▁защищать	-12450
▁подчерки	-12451
▁подчёрки	-12452
▁поставки	-12453
▁правовых	-12454
▁редактор	-12455
▁торговли	-12456
▁Петербург	-12457
▁бездомных	-12458
▁ведомства	-12459
▁министров	-12460
▁поколение	-12461
▁политиков	-12462
▁поражения	-12463
▁правонару	-12464
▁предвыбор	-12465
▁предприня	-12466
▁провозгла	-12467
▁реального	-12468
▁считалось	-12469
▁требовать	-12470
▁экономику	-12471
▁активность	-12472
▁американцы	-12473
▁воспитания	-12474
▁временного	-12475
▁подготовку	-12476
▁подтвердил	-12477
▁показатель	-12478
▁построения	-12479
▁рассказать	-12480
▁стремление	-12481
▁Естественно	-12482
▁автомобилей	-12483
▁культурного	-12484
▁лаборатории	-12485
▁медицинских	-12486
▁несколькими	-12487
▁перспективы	-12488
▁приглашения	-12489
▁производить	-12490
▁финансового	-12491
▁Одновременно	-12492
▁издательства	-12493
▁министерства	-12494
▁обязательств	-12495
▁осуществляет	-12496
▁преступности	-12497
▁приглашающей	-12498
▁сельскохозяй	-12499
▁стабильности	-12500
▁Отечественной	-12501
▁определенного	-12502
▁расследования	-12503
72	-12504
ag	-12505
pr	-12506
sy	-12507
ИК	-12508
Ну	-12509
ТЭ	-12510
рэ	-12511
эт	-12512
ёв	-12513
_24	-12514
ari	-12515
god	-12516
ick	-12517
kry	-12518
nye	-12519
nyh	-12520
oll	-12521
Ста	-12522
бан	-12523
луб	-12524
мил	-12525
нёр	-12526
сет	-12527
чеб	-12528
чее	-12529
▁46	-12530
▁7,	-12531
▁Be	-12532
▁Li	-12533
▁ОП	-12534
▁чь	-12535
ATEX	-12536
воло	-12537
езжа	-12538
жний	-12539
иска	-12540
ксон	-12541
купи	-12542
лона	-12543
небе	-12544
плин	-12545
рази	-12546
роне	-12547
шель	-12548
▁Вну	-12549
▁Кен	-12550
▁Обя	-12551
▁Тар	-12552
▁Тор	-12553
▁Учи	-12554
▁бак	-12555
▁бин	-12556
▁гиб	-12557
▁дев	-12558
▁дух	-12559
▁нав	-12560
▁топ	-12561
:2012	-12562
графа	-12563
зовый	-12564
ллинг	-12565
льтра	-12566
ляция	-12567
рении	-12568
ровок	-12569
сексу	-12570
тович	-12571
шкина	-12572
щаясь	-12573
▁1997	-12574
▁Абра	-12575
▁Ахма	-12576
▁Више	-12577
▁Стре	-12578
▁адап	-12579
▁вино	-12580
▁вызо	-12581
▁выно	-12582
▁гомо	-12583
▁испу	-12584
▁крае	-12585
▁мною	-12586
▁мёрт	-12587
▁обши	-12588
▁окно	-12589
▁пафо	-12590
▁пищи	-12591
▁приу	-12592
▁рези	-12593
▁тени	-12594
▁цепо	-12595
▁яйца	-12596
chandr	-12597
sinhas	-12598
Россий	-12599
зацией	-12600
нилась	-12601
тастро	-12602
чивает	-12603
щенной	-12604
▁Intel	-12605
▁LATEX	-12606
▁Город	-12607
▁Испол	-12608
▁Указа	-12609
▁безна	-12610
▁борту	-12611
▁вошла	-12612
▁граду	-12613
▁грома	-12614
▁дошко	-12615
▁карте	-12616
▁копии	-12617
▁мента	-12618
▁миром	-12619
▁музее	-12620
▁несут	-12621
▁отчёт	-12622
▁писем	-12623
▁почты	-12624
▁снаря	-12625
▁судей	-12626
▁тремя	-12627
влялись	-12628
вшимися	-12629
ковский	-12630
ковской	-12631
тербург	-12632
читывая	-12633
▁Борхес	-12634
▁Венесу	-12635
▁Леонид	-12636
▁Отсюда	-12637
▁билеты	-12638
▁важные	-12639
▁внести	-12640
▁вторым	-12641
▁выража	-12642
▁гастро	-12643
▁доклад	-12644
▁задумы	-12645
▁звучит	-12646
▁импорт	-12647
▁каждое	-12648
▁музыке	-12649
▁насили	-12650
▁обнаро	-12651
▁охране	-12652
▁постро	-12653
▁провёл	-12654
▁старый	-12655
лекопита	-12656
ничества	-12657
совершен	-12658
▁Арбитра	-12659
▁Большая	-12660
▁вовремя	-12661
▁девочка	-12662
▁детских	-12663
▁женщину	-12664
▁изделие	-12665
▁интерне	-12666
▁обычной	-12667
▁особого	-12668
▁прибыль	-12669
▁реакции	-12670
▁скандал	-12671
▁сложных	-12672
▁снимать	-12673
▁Алехиной	-12674
▁варианта	-12675
▁величины	-12676
▁выставка	-12677
▁доказать	-12678
▁железных	-12679
▁живопись	-12680
▁значений	-12681
▁магистра	-12682
▁открытым	-12683
▁погибших	-12684
▁подумать	-12685
▁покинуть	-12686
▁процессо	-12687
▁реальных	-12688
▁субъекта	-12689
▁судебных	-12690
▁убийства	-12691
▁читателя	-12692
Петербурге	-12693
▁Подробнее	-12694
▁возможные	-12695
▁выражения	-12696
▁городских	-12697
▁действуют	-12698
▁заявлении	-12699
▁обнаружил	-12700
▁писателей	-12701
▁применять	-12702
▁продавать	-12703
▁сахарного	-12704
▁советские	-12705
▁спектакля	-12706
▁утвержден	-12707
Государство	-12708
становление	-12709
▁Российскую	-12710
▁директоров	-12711
▁нормальной	-12712
▁объяснения	-12713
▁постановке	-12714
▁предыдущих	-12715
▁признается	-12716
▁приложений	-12717
▁сообщества	-12718
▁американцев	-12719
▁конкуренции	-12720
▁космической	-12721
▁применяется	-12722
▁происходило	-12723
▁соотношения	-12724
▁Председатель	-12725
▁американским	-12726
▁православных	-12727
▁присутствует	-12728
▁существующих	-12729
▁Национального	-12730
▁администрация	-12731
▁президентских	-12732
▁происхождение	-12733
▁Предполагается	-12734
▁многочисленных	-12735
▁принадлежности	-12736
▁Конституционном	-12737
0_	-12738
oe	-12739
ow	-12740
Ло	-12741
Ти	-12742
Ша	-12743
лъ	-12744
щь	-12745
!!!	-12746
fox	-12747
yut	-12748
Бха	-12749
био	-12750
вий	-12751
дзе	-12752
зво	-12753
зиа	-12754
нив	-12755
пет	-12756
поч	-12757
тео	-12758
тум	-12759
ьте	-12760
▁4)	-12761
▁VI	-12762
▁VO	-12763
▁Жу	-12764
▁Ок	-12765
mail	-12766
Алек	-12767
Вели	-12768
ване	-12769
гита	-12770
гура	-12771
динг	-12772
дона	-12773
доры	-12774
зван	-12775
пать	-12776
рики	-12777
рист	-12778
тону	-12779
тяну	-12780
▁50-	-12781
▁800	-12782
▁Man	-12783
▁КНР	-12784
▁Кас	-12785
▁Кля	-12786
▁Яко	-12787
▁кно	-12788
▁лжи	-12789
▁рее	-12790
▁рот	-12791
▁сфе	-12792
▁уга	-12793
▁уми	-12794
dours	-12795
далее	-12796
краин	-12797
нером	-12798
нятся	-12799
слава	-12800
треть	-12801
цкого	-12802
▁Риме	-12803
▁Твер	-12804
▁акты	-12805
▁возь	-12806
▁днём	-12807
▁долг	-12808
▁дура	-12809
▁лесу	-12810
▁мель	-12811
▁нуле	-12812
▁петь	-12813
▁преу	-12814
▁расы	-12815
▁сдви	-12816
▁секс	-12817
▁снаб	-12818
▁фана	-12819
ванных	-12820
гности	-12821
мнисти	-12822
началу	-12823
падает	-12824
стными	-12825
шенный	-12826
▁Джейм	-12827
▁Одним	-12828
▁Самое	-12829
▁аниме	-12830
▁белый	-12831
▁билет	-12832
▁жилое	-12833
▁иконы	-12834
▁импри	-12835
▁канад	-12836
▁крест	-12837
▁круга	-12838
▁науке	-12839
▁обнов	-12840
▁опеку	-12841
▁освое	-12842
▁ошибо	-12843
▁пейза	-12844
▁писто	-12845
▁подсу	-12846
▁похож	-12847
▁приоб	-12848
▁симпа	-12849
▁славя	-12850
▁смеша	-12851
▁сорев	-12852
▁умеет	-12853
▁цифры	-12854
альными	-12855
дование	-12856
женного	-12857
нумента	-12858
ператор	-12859
▁Первым	-12860
▁Северо	-12861
▁думает	-12862
▁каждым	-12863
▁манипу	-12864
▁мотиви	-12865
▁новыми	-12866
▁образе	-12867
▁партию	-12868
▁планах	-12869
▁прессы	-12870
▁примет	-12871
▁прояви	-12872
▁разоча	-12873
▁судьбу	-12874
▁третье	-12875
▁тюрьме	-12876
▁швейца	-12877
▁школах	-12878
комменти	-12879
фессиона	-12880
▁Причина	-12881
▁астроно	-12882
▁деревья	-12883
▁держать	-12884
▁дорогах	-12885
▁единого	-12886
▁затраги	-12887
▁комитет	-12888
▁корпуса	-12889
▁моменты	-12890
▁морской	-12891
▁обычных	-12892
▁партнёр	-12893
▁подавля	-12894
▁полгода	-12895
▁приклад	-12896
▁прошлой	-12897
▁пытаясь	-12898
▁рабочие	-12899
▁раздели	-12900
▁словарь	-12901
▁станций	-12902
▁трансли	-12903
▁энергия	-12904
▁благосло	-12905
▁варианте	-12906
▁выставке	-12907
▁границей	-12908
▁иллюстра	-12909
▁обществу	-12910
▁приведен	-12911
▁принципу	-12912
▁рейтинга	-12913
▁сервисов	-12914
▁средство	-12915
▁супругов	-12916
▁Федерацию	-12917
▁аэропорта	-12918
▁допустить	-12919
▁занимался	-12920
▁император	-12921
▁последнюю	-12922
▁посмотрел	-12923
▁правилами	-12924
▁произошла	-12925
▁скончался	-12926
▁согласова	-12927
▁составить	-12928
▁способами	-12929
▁участвует	-12930
▁автомобиля	-12931
▁архитектур	-12932
▁воспитание	-12933
▁инвестиций	-12934
▁объяснение	-12935
▁поддержать	-12936
▁следствием	-12937
▁содержится	-12938
▁творческой	-12939
▁официальной	-12940
▁телевидение	-12941
▁документации	-12942
▁политическим	-12943
▁предложением	-12944
▁предположить	-12945
▁рассмотрении	-12946
▁требованиями	-12947
▁употребление	-12948
▁французского	-12949
▁расследование	-12950
▁Правительством	-12951
▁Конституционным	-12952
▁рассматривается	-12953
.;	-12954
/4	-12955
62	-12956
zi	-12957
НА	-12958
юн	-12959
-60	-12960
0%.	-12961
cha	-12962
der	-12963
men	-12964
oci	-12965
pos	-12966
ron	-12967
son	-12968
Аль	-12969
Еди	-12970
НИЕ	-12971
бие	-12972
дых	-12973
ждя	-12974
пры	-12975
рре	-12976
рят	-12977
фин	-12978
хие	-12979
цуз	-12980
чев	-12981
▁Ей	-12982
▁Пх	-12983
▁Эв	-12984
▁тё	-12985
▁щи	-12986
dian	-12987
mosk	-12988
СССР	-12989
вным	-12990
ганы	-12991
дишь	-12992
едет	-12993
енья	-12994
неди	-12995
пазо	-12996
рама	-12997
сали	-12998
хова	-12999
хожу	-13000
хоро	-13001
щали	-13002
▁For	-13003
▁Дви	-13004
▁ЛФШ	-13005
▁Увы	-13006
▁дам	-13007
▁ово	-13008
▁сия	-13009
▁сот	-13010
▁сою	-13011
▁цик	-13012
0%91%	-13013
ваете	-13014
джера	-13015
ехала	-13016
летий	-13017
лигия	-13018
▁1938	-13019
▁Были	-13020
▁Весь	-13021
▁Дома	-13022
▁Иоан	-13023
▁Куда	-13024
▁Отно	-13025
▁Рича	-13026
▁Рома	-13027
▁брон	-13028
▁волн	-13029
▁двер	-13030
▁моим	-13031
▁моск	-13032
▁осен	-13033
▁поры	-13034
▁сухо	-13035
▁ужас	-13036
▁штат	-13037
бирать	-13038
видимо	-13039
дением	-13040
дорови	-13041
жества	-13042
летняя	-13043
нейших	-13044
ностям	-13045
писать	-13046
рового	-13047
ществи	-13048
▁Генна	-13049
▁Госду	-13050
▁Дании	-13051
▁Откры	-13052
▁Супер	-13053
▁архео	-13054
▁богов	-13055
▁веков	-13056
▁долга	-13057
▁жилищ	-13058
▁зимой	-13059
▁иными	-13060
▁линей	-13061
▁макро	-13062
▁насла	-13063
▁неком	-13064
▁опеки	-13065
▁оперы	-13066
▁охран	-13067
▁потер	-13068
▁поэта	-13069
▁славы	-13070
▁счета	-13071
▁убить	-13072
▁улицу	-13073
▁эпиде	-13074
вседнев	-13075
несения	-13076
электро	-13077
▁Музыка	-13078
▁Наполе	-13079
▁Победы	-13080
▁ареста	-13081
▁бумаги	-13082
▁влияет	-13083
▁гостей	-13084
▁делали	-13085
▁единой	-13086
▁затруд	-13087
▁игнори	-13088
▁кладби	-13089
▁компро	-13090
▁мальчи	-13091
▁маркет	-13092
▁накопи	-13093
▁народу	-13094
▁началу	-13095
▁нашему	-13096
▁неудоб	-13097
▁одежду	-13098
▁относя	-13099
▁пришед	-13100
▁прошёл	-13101
▁прямом	-13102
▁растет	-13103
▁ростом	-13104
▁смысло	-13105
▁такому	-13106
▁угроза	-13107
▁цветов	-13108
▁цилинд	-13109
вленными	-13110
контакте	-13111
рованная	-13112
▁Другими	-13113
▁больных	-13114
▁введено	-13115
▁вопросе	-13116
▁выдержа	-13117
▁детстве	-13118
▁задачей	-13119
▁золотой	-13120
▁мальчик	-13121
▁неблаго	-13122
▁некогда	-13123
▁ответов	-13124
▁отчасти	-13125
▁протоко	-13126
▁сетевых	-13127
▁создают	-13128
▁стабили	-13129
▁старого	-13130
▁участке	-13131
▁учиться	-13132
▁членами	-13133
▁экспорт	-13134
▁энергию	-13135
▁Действия	-13136
▁Основной	-13137
▁денежные	-13138
▁знакомых	-13139
▁индустри	-13140
▁легендар	-13141
▁молодого	-13142
▁монополи	-13143
▁повысить	-13144
▁поставок	-13145
▁правосла	-13146
▁придержи	-13147
▁признали	-13148
▁работали	-13149
▁священно	-13150
Петербурга	-13151
▁Вселенной	-13152
▁Остальные	-13153
▁культурой	-13154
▁маленькие	-13155
▁налоговых	-13156
▁остальное	-13157
▁популяции	-13158
▁проголосо	-13159
▁Результаты	-13160
▁Университе	-13161
▁ассоциации	-13162
▁библиотека	-13163
▁заработать	-13164
▁композиции	-13165
▁наркотиков	-13166
▁обнаружили	-13167
▁реконструк	-13168
▁социальную	-13169
▁финансовые	-13170
▁Московского	-13171
▁государству	-13172
▁задержанных	-13173
▁пропорциона	-13174
▁договорились	-13175
▁значительной	-13176
▁общественный	-13177
▁политическую	-13178
▁традиционной	-13179
▁Примечательно	-13180
▁автоматически	-13181
▁заканчивается	-13182
▁предусмотрено	-13183
▁производителей	-13184
▁соответствовать	-13185
▁устанавливается	-13186
▁устанавливаются	-13187
82	-13188
nu	-13189
Ге	-13190
СЕ	-13191
лд	-13192
ок	-13193
30-	-13194
ald	-13195
cht	-13196
ica	-13197
sam	-13198
ton	-13199
вим	-13200
лел	-13201
лёк	-13202
ною	-13203
пут	-13204
фай	-13205
чук	-13206
▁Вя	-13207
▁ГО	-13208
▁ОБ	-13209
▁пр	-13210
1%82	-13211
dmit	-13212
вела	-13213
веши	-13214
вида	-13215
вная	-13216
гент	-13217
драв	-13218
жерт	-13219
зета	-13220
линг	-13221
лита	-13222
мали	-13223
мара	-13224
мину	-13225
особ	-13226
пали	-13227
поля	-13228
рань	-13229
реда	-13230
само	-13231
стое	-13232
тащи	-13233
тоне	-13234
цесс	-13235
шите	-13236
ялся	-13237
▁180	-13238
▁60-	-13239
▁Бил	-13240
▁ВИЧ	-13241
▁ВТБ	-13242
▁Вос	-13243
▁Две	-13244
▁Кер	-13245
▁Над	-13246
▁Нев	-13247
▁Нео	-13248
▁Пан	-13249
▁Тан	-13250
▁Тип	-13251
▁Хью	-13252
▁выд	-13253
▁ден	-13254
▁мою	-13255
▁обя	-13256
▁чьи	-13257
ванге	-13258
довые	-13259
зовые	-13260
кторы	-13261
откры	-13262
пункт	-13263
ровке	-13264
стинк	-13265
тятся	-13266
щейся	-13267
▁Comm	-13268
▁Буду	-13269
▁Виль	-13270
▁Люби	-13271
▁Мино	-13272
▁Петр	-13273
▁Сева	-13274
▁Эдва	-13275
▁амво	-13276
▁апел	-13277
▁блок	-13278
▁валю	-13279
▁дифф	-13280
▁каме	-13281
▁нано	-13282
▁овла	-13283
▁огла	-13284
▁панк	-13285
▁похи	-13286
▁пыли	-13287
▁раст	-13288
▁рель	-13289
▁сино	-13290
▁тари	-13291
бюджет	-13292
женным	-13293
нессан	-13294
рологи	-13295
ционер	-13296
▁Донба	-13297
▁Ислан	-13298
▁банки	-13299
▁бредо	-13300
▁жилья	-13301
▁латин	-13302
▁несет	-13303
▁печат	-13304
▁плана	-13305
▁прико	-13306
▁прогу	-13307
▁слава	-13308
▁смену	-13309
▁снизи	-13310
▁числу	-13311
▁члена	-13312
водятся	-13313
домости	-13314
разному	-13315
чностью	-13316
▁Африке	-13317
▁Значит	-13318
▁Канаде	-13319
▁Швейца	-13320
▁аноним	-13321
▁безвоз	-13322
▁видишь	-13323
▁годами	-13324
▁гомини	-13325
▁горных	-13326
▁дерево	-13327
▁железы	-13328
▁знаешь	-13329
▁знание	-13330
▁играли	-13331
▁клубов	-13332
▁кругом	-13333
▁навига	-13334
▁обосно	-13335
▁одноим	-13336
▁прозви	-13337
▁прозву	-13338
▁прошел	-13339
▁районы	-13340
▁сидеть	-13341
▁смыслу	-13342
▁старых	-13343
▁стёкол	-13344
▁считая	-13345
▁тексте	-13346
▁теорию	-13347
▁удержи	-13348
▁чувств	-13349
ждествен	-13350
личество	-13351
ственник	-13352
▁Берлине	-13353
▁Олимпиа	-13354
▁Олимпий	-13355
▁Пожалуй	-13356
▁Система	-13357
▁амнисти	-13358
▁возлага	-13359
▁выходят	-13360
▁голосом	-13361
▁данными	-13362
▁диапазо	-13363
▁закрыть	-13364
▁материи	-13365
▁матерью	-13366
▁неподви	-13367
▁первому	-13368
▁поджелу	-13369
▁подобно	-13370
▁поисках	-13371
▁полезно	-13372
▁постара	-13373
▁привели	-13374
▁причаст	-13375
▁простым	-13376
▁рабочей	-13377
▁ремонта	-13378
▁хватило	-13379
▁частицы	-13380
▁частной	-13381
ствование	-13382
▁Митрофан	-13383
▁властями	-13384
▁внесении	-13385
▁дивизион	-13386
▁династии	-13387
▁единства	-13388
▁коалиции	-13389
▁методами	-13390
▁мощности	-13391
▁организм	-13392
▁основная	-13393
▁остаться	-13394
▁получали	-13395
▁понадоби	-13396
▁попросил	-13397
▁размером	-13398
▁расстрой	-13399
▁серьёзно	-13400
▁туристов	-13401
▁Вашингтон	-13402
▁Верховной	-13403
▁выполнить	-13404
▁ежедневно	-13405
▁известной	-13406
▁маленьких	-13407
▁миллиарда	-13408
▁млекопита	-13409
▁монастырь	-13410
▁небольшие	-13411
▁свободное	-13412
▁структуре	-13413
▁считаться	-13414
▁тщательно	-13415
▁улучшения	-13416
▁Владимиром	-13417
▁владельцев	-13418
▁внутренней	-13419
▁дисциплины	-13420
▁источником	-13421
▁однозначно	-13422
▁откровенно	-13423
▁предлагают	-13424
▁разделения	-13425
▁расширения	-13426
▁утверждать	-13427
▁голосование	-13428
▁европейские	-13429
▁количеством	-13430
▁комментария	-13431
▁космических	-13432
▁предоставля	-13433
▁соотношение	-13434
▁удовлетворе	-13435
▁утверждение	-13436
▁Азербайджана	-13437
▁значительное	-13438
▁коммуникации	-13439
▁оборудование	-13440
▁общественные	-13441
▁организацией	-13442
▁организовать	-13443
▁предлагается	-13444
▁рассказывать	-13445
▁судопроизвод	-13446
▁Представитель	-13447
▁законопроекта	-13448
▁политического	-13449
▁распределение	-13450
▁Международного	-13451
▁сотрудничество	-13452
▁предусматривает	-13453
▁рассматриваться	-13454
▁художественного	-13455
52	-13456
83	-13457
OS	-13458
yc	-13459
zv	-13460
бр	-13461
гл	-13462
лк	-13463
юк	-13464
ale	-13465
gin	-13466
min	-13467
sto	-13468
жуа	-13469
ксё	-13470
рба	-13471
тип	-13472
чёв	-13473
щин	-13474
эна	-13475
ёры	-13476
▁Ad	-13477
▁di	-13478
▁МЕ	-13479
kish	-13480
вину	-13481
жами	-13482
жеме	-13483
изма	-13484
инду	-13485
каче	-13486
кото	-13487
руем	-13488
сило	-13489
скур	-13490
сную	-13491
ёнок	-13492
▁АПК	-13493
▁Зай	-13494
▁Зим	-13495
▁Кру	-13496
▁Лит	-13497
▁вод	-13498
▁жре	-13499
▁кош	-13500
▁лон	-13501
▁неа	-13502
бурге	-13503
зного	-13504
когда	-13505
лятся	-13506
ниста	-13507
пуляр	-13508
разви	-13509
сандр	-13510
телен	-13511
тному	-13512
▁1975	-13513
▁Tech	-13514
▁Наши	-13515
▁Паки	-13516
▁Саха	-13517
▁дете	-13518
▁друж	-13519
▁изло	-13520
▁ином	-13521
▁колё	-13522
▁копе	-13523
▁куби	-13524
▁лега	-13525
▁стру	-13526
▁тера	-13527
▁тяго	-13528
▁убил	-13529
▁ушёл	-13530
довлет	-13531
жемеся	-13532
русски	-13533
туация	-13534
▁Исклю	-13535
▁Олень	-13536
▁Петро	-13537
▁Тради	-13538
▁Чарль	-13539
▁Эврис	-13540
▁барре	-13541
▁взима	-13542
▁возна	-13543
▁глупы	-13544
▁джаза	-13545
▁дождь	-13546
▁клубы	-13547
▁князя	-13548
▁кончи	-13549
▁нашёл	-13550
▁обыча	-13551
▁офице	-13552
▁посты	-13553
▁прошу	-13554
▁путей	-13555
▁фирма	-13556
▁храма	-13557
носится	-13558
ходится	-13559
▁Бориса	-13560
▁Против	-13561
▁Работа	-13562
▁Челове	-13563
▁агрега	-13564
▁аренду	-13565
▁беспре	-13566
▁велика	-13567
▁верить	-13568
▁версий	-13569
▁весной	-13570
▁вражды	-13571
▁выходе	-13572
▁дворца	-13573
▁дистри	-13574
▁замени	-13575
▁звание	-13576
▁звезда	-13577
▁конвер	-13578
▁лучшее	-13579
▁массив	-13580
▁менедж	-13581
▁набора	-13582
▁наруша	-13583
▁отказе	-13584
▁печать	-13585
▁полосы	-13586
▁развед	-13587
▁служеб	-13588
▁спортс	-13589
▁ставки	-13590
▁трассе	-13591
▁турист	-13592
▁ужесто	-13593
▁ультра	-13594
▁уплаты	-13595
▁форума	-13596
Роснефть	-13597
ведённые	-13598
тическую	-13599
▁Венесуэ	-13600
▁Востока	-13601
▁Церковь	-13602
▁большом	-13603
▁гаранти	-13604
▁желания	-13605
▁заслужи	-13606
▁лучшего	-13607
▁методом	-13608
▁неизмен	-13609
▁ожидать	-13610
▁партнер	-13611
▁перейти	-13612
▁подверг	-13613
▁признан	-13614
▁работах	-13615
▁санкций	-13616
▁следить	-13617
▁супруга	-13618
▁угрозой	-13619
▁условие	-13620
▁учебных	-13621
▁хватало	-13622
▁эффекта	-13623
Заголовок	-13624
▁возможны	-13625
▁давления	-13626
▁домашних	-13627
▁заведомо	-13628
▁заняться	-13629
▁интереса	-13630
▁искусств	-13631
▁кампании	-13632
▁квартиру	-13633
▁массовых	-13634
▁обойтись	-13635
▁огромный	-13636
▁островах	-13637
▁передаёт	-13638
▁пилотиру	-13639
▁посовето	-13640
▁предмета	-13641
▁рассказы	-13642
▁сознании	-13643
▁способна	-13644
▁спросить	-13645
▁статьями	-13646
▁столетия	-13647
▁сумасшед	-13648
▁тридцати	-13649
Коммерсант	-13650
▁Ленинград	-13651
▁Финляндии	-13652
▁заседание	-13653
▁концентра	-13654
▁механизма	-13655
▁переводов	-13656
▁перевозки	-13657
▁повседнев	-13658
▁подозрева	-13659
▁посещения	-13660
▁проходить	-13661
▁режиссёра	-13662
▁секретарь	-13663
▁соревнова	-13664
▁английской	-13665
▁зарубежных	-13666
▁изменилась	-13667
▁московских	-13668
▁пассажиров	-13669
▁поговорить	-13670
▁проблемами	-13671
▁сокращения	-13672
▁Квадратович	-13673
▁Федеральной	-13674
▁параллельно	-13675
▁преступника	-13676
▁принадлежат	-13677
▁развиваться	-13678
▁реализовать	-13679
▁уведомление	-13680
▁утверждения	-13681
▁численности	-13682
▁электронные	-13683
▁департамента	-13684
▁единственная	-13685
▁исторических	-13686
▁комментариев	-13687
▁определенной	-13688
▁представлена	-13689
▁преимущества	-13690
▁производству	-13691
▁противопоста	-13692
▁противоречий	-13693
▁противоречия	-13694
▁транспортных	-13695
▁исследователи	-13696
▁подтверждение	-13697
▁регулирования	-13698
▁соответствуют	-13699
▁военнослужащих	-13700
▁попечительства	-13701
▁правительством	-13702
▁электроэнергии	-13703
%.	-13704
-3	-13705
87	-13706
??	-13707
Sh	-13708
fe	-13709
ib	-13710
АР	-13711
ИС	-13712
сх	-13713
ёк	-13714
Vel	-13715
lik	-13716
oun	-13717
zhe	-13718
zon	-13719
Анд	-13720
Гра	-13721
Мар	-13722
дья	-13723
жах	-13724
жин	-13725
жне	-13726
зав	-13727
ису	-13728
сан	-13729
унд	-13730
ёшь	-13731
▁8,	-13732
▁НЕ	-13733
▁Пя	-13734
▁ФР	-13735
etro	-13736
file	-13737
ject	-13738
opil	-13739
pred	-13740
важа	-13741
гере	-13742
гети	-13743
евро	-13744
етра	-13745
жнем	-13746
лева	-13747
лица	-13748
льда	-13749
ссен	-13750
▁13-	-13751
▁19.	-13752
▁80-	-13753
▁Fre	-13754
▁XXI	-13755
▁Ваш	-13756
▁Выс	-13757
▁Иде	-13758
▁Рау	-13759
▁Сту	-13760
▁Яну	-13761
▁дья	-13762
▁жар	-13763
▁зря	-13764
▁изы	-13765
▁лей	-13766
▁пау	-13767
▁сбы	-13768
▁сел	-13769
▁увы	-13770
▁уде	-13771
Akish	-13772
бурга	-13773
вязан	-13774
запад	-13775
кнула	-13776
корей	-13777
лятор	-13778
моему	-13779
нском	-13780
очень	-13781
парти	-13782
скрип	-13783
стном	-13784
тетом	-13785
ённые	-13786
▁1944	-13787
▁1976	-13788
▁1989	-13789
▁Аксё	-13790
▁Лишь	-13791
▁Судя	-13792
▁акку	-13793
▁взор	-13794
▁гени	-13795
▁гено	-13796
▁гнез	-13797
▁дала	-13798
▁двум	-13799
▁дому	-13800
▁желу	-13801
▁крем	-13802
▁масс	-13803
▁надё	-13804
▁охла	-13805
▁села	-13806
▁храм	-13807
Росбал	-13808
вилось	-13809
графию	-13810
жертво	-13811
контро	-13812
ляться	-13813
ляются	-13814
продук	-13815
работа	-13816
службы	-13817
штейна	-13818
▁1960-	-13819
▁Андре	-13820
▁Барак	-13821
▁Брита	-13822
▁Выбор	-13823
▁Генри	-13824
▁Елена	-13825
▁Заклю	-13826
▁Колум	-13827
▁Кубка	-13828
▁Лойко	-13829
▁Фильм	-13830
▁Штаты	-13831
▁астра	-13832
▁вашей	-13833
▁вышед	-13834
▁гордо	-13835
▁домен	-13836
▁допро	-13837
▁жилым	-13838
▁имену	-13839
▁импро	-13840
▁крыль	-13841
▁мисти	-13842
▁непод	-13843
▁носят	-13844
▁осени	-13845
▁отвра	-13846
▁оттен	-13847
▁почер	-13848
▁приви	-13849
▁репре	-13850
▁свадь	-13851
▁трубы	-13852
▁хромо	-13853
Akishin	-13854
Velopil	-13855
государ	-13856
стности	-13857
▁Авторы	-13858
▁Африки	-13859
▁Берлин	-13860
▁Видимо	-13861
▁Вместо	-13862
▁Второе	-13863
▁Джордж	-13864
▁Кирилл	-13865
▁Основа	-13866
▁Призна	-13867
▁Принци	-13868
▁Продол	-13869
▁аренда	-13870
▁вчераш	-13871
▁выборе	-13872
▁занять	-13873
▁личной	-13874
▁образы	-13875
▁орудия	-13876
▁особой	-13877
▁отстра	-13878
▁падает	-13879
▁первен	-13880
▁планов	-13881
▁провел	-13882
▁просит	-13883
▁сроком	-13884
▁стояла	-13885
▁учёных	-13886
▁финале	-13887
действие	-13888
образова	-13889
ровалось	-13890
▁Валерий	-13891
▁Игнатия	-13892
▁Москвой	-13893
▁Следова	-13894
▁востоке	-13895
▁гендире	-13896
▁госпита	-13897
▁докладе	-13898
▁лечения	-13899
▁металли	-13900
▁наступи	-13901
▁незначи	-13902
▁общение	-13903
▁оппонен	-13904
▁оружием	-13905
▁очереди	-13906
▁подарок	-13907
▁постели	-13908
▁проигры	-13909
▁произно	-13910
▁раннего	-13911
▁сборник	-13912
▁соверша	-13913
▁создаёт	-13914
▁усмотре	-13915
▁форумов	-13916
▁хорошая	-13917
▁хулиган	-13918
▁ядерных	-13919
▁Васильев	-13920
▁вещество	-13921
▁мальчика	-13922
▁называет	-13923
▁обратить	-13924
▁обычного	-13925
▁педагоги	-13926
▁помогают	-13927
▁поступил	-13928
▁предметы	-13929
▁режиссер	-13930
▁реоргани	-13931
Velopilger	-13932
▁Института	-13933
▁Православ	-13934
▁возглавля	-13935
▁действиях	-13936
▁заплатить	-13937
▁метрополи	-13938
▁механизмы	-13939
▁неприятно	-13940
▁объявлено	-13941
▁одногрупп	-13942
▁оставался	-13943
▁подмосков	-13944
▁позволили	-13945
▁последняя	-13946
▁построена	-13947
▁распоряди	-13948
▁советское	-13949
▁стратегии	-13950
▁телефонов	-13951
▁тенденции	-13952
▁фестивале	-13953
▁физиологи	-13954
▁Российская	-13955
▁городского	-13956
▁гражданами	-13957
▁действиями	-13958
▁завершения	-13959
▁избавиться	-13960
▁конкретные	-13961
▁находилась	-13962
▁необходимы	-13963
▁определены	-13964
▁профессора	-13965
▁различными	-13966
▁свойствами	-13967
▁транспорти	-13968
▁указанного	-13969
▁физические	-13970
▁финансовый	-13971
▁Федеральным	-13972
▁арбитражный	-13973
▁известность	-13974
▁иностранным	-13975
▁медицинской	-13976
▁музыкальной	-13977
▁оценивается	-13978
▁регистрация	-13979
▁результатом	-13980
▁участниками	-13981
▁единственное	-13982
▁исследовании	-13983
▁материальных	-13984
▁употребления	-13985
▁корреспондент	-13986
▁поджелудочной	-13987
▁подразделения	-13988
▁постановление	-13989
▁производителя	-13990
▁обстоятельствах	-13991
▁характеризуется	-13992
/3	-13993
ac	-13994
ak	-13995
lr	-13996
to	-13997
ЧС	-13998
ап	-13999
оп	-14000
ern	-14001
ome	-14002
Гео	-14003
гги	-14004
жье	-14005
ило	-14006
нди	-14007
пиа	-14008
пка	-14009
трю	-14010
шны	-14011
энь	-14012
▁33	-14013
▁Эд	-14014
▁ню	-14015
Боль	-14016
вети	-14017
дала	-14018
каин	-14019
кино	-14020
сихо	-14021
сном	-14022
стка	-14023
теру	-14024
тком	-14025
тори	-14026
цова	-14027
шила	-14028
шком	-14029
▁Cor	-14030
▁VOA	-14031
▁Лав	-14032
▁МЧС	-14033
▁Мэт	-14034
▁Оле	-14035
▁Пои	-14036
▁УПК	-14037
▁Юго	-14038
▁бег	-14039
▁бри	-14040
▁еру	-14041
▁иди	-14042
▁мен	-14043
▁оса	-14044
▁пля	-14045
▁хит	-14046
inter	-14047
ворот	-14048
джаза	-14049
евича	-14050
ризма	-14051
терей	-14052
фильм	-14053
читал	-14054
штейн	-14055
▁York	-14056
▁Доро	-14057
▁Иеру	-14058
▁Кафе	-14059
▁Прак	-14060
▁вкла	-14061
▁влюб	-14062
▁воли	-14063
▁дата	-14064
▁жила	-14065
▁завы	-14066
▁зате	-14067
▁зону	-14068
▁коля	-14069
▁нара	-14070
▁неле	-14071
▁нова	-14072
▁нужд	-14073
▁парк	-14074
▁поощ	-14075
▁прок	-14076
▁реже	-14077
▁рыба	-14078
▁саду	-14079
▁семе	-14080
▁цикл	-14081
▁ярма	-14082
ванный	-14083
зируют	-14084
ленную	-14085
лились	-14086
проект	-14087
револю	-14088
ротвор	-14089
телось	-14090
шенные	-14091
▁Аркти	-14092
▁Данаи	-14093
▁Кубок	-14094
▁Леона	-14095
▁Разви	-14096
▁Свято	-14097
▁Хорва	-14098
▁вдвое	-14099
▁грудь	-14100
▁друже	-14101
▁забыл	-14102
▁зовут	-14103
▁ислам	-14104
▁несом	-14105
▁облож	-14106
▁общие	-14107
▁опира	-14108
▁отчая	-14109
▁пират	-14110
▁попра	-14111
▁поспе	-14112
▁проре	-14113
▁рамки	-14114
▁роско	-14115
▁сочув	-14116
▁терпе	-14117
▁форум	-14118
▁шоссе	-14119
Росбалт	-14120
востоке	-14121
провода	-14122
точного	-14123
▁Белого	-14124
▁Нового	-14125
▁Осетии	-14126
▁Третья	-14127
▁беспри	-14128
▁выйдет	-14129
▁выходя	-14130
▁газете	-14131
▁забыть	-14132
▁затрат	-14133
▁звуков	-14134
▁здании	-14135
▁младен	-14136
▁ногами	-14137
▁опытом	-14138
▁особых	-14139
▁оформи	-14140
▁охотно	-14141
▁переиз	-14142
▁подачи	-14143
▁подели	-14144
▁полная	-14145
▁прибыл	-14146
▁привер	-14147
▁пришел	-14148
▁раздел	-14149
▁сайтов	-14150
▁сестра	-14151
▁собора	-14152
▁списка	-14153
▁фактор	-14154
▁хотела	-14155
▁членом	-14156
▁Энгельс	-14157
▁ассоции	-14158
▁возобно	-14159
▁вопреки	-14160
▁всерьёз	-14161
▁встречу	-14162
▁высокую	-14163
▁говорим	-14164
▁девочки	-14165
▁законам	-14166
▁инстинк	-14167
▁инструк	-14168
▁курения	-14169
▁ликвиди	-14170
▁обсерва	-14171
▁органах	-14172
▁примера	-14173
▁приняты	-14174
▁природу	-14175
▁проверя	-14176
▁формате	-14177
▁эксперт	-14178
▁элемент	-14179
▁являлся	-14180
Ведомости	-14181
стических	-14182
▁Бразилии	-14183
▁Конфуция	-14184
▁Норвегии	-14185
▁Пользова	-14186
▁англоязы	-14187
▁восприня	-14188
▁доказыва	-14189
▁друзьями	-14190
▁заявляют	-14191
▁ключевых	-14192
▁культуру	-14193
▁обсудить	-14194
▁обучение	-14195
▁объектом	-14196
▁объявили	-14197
▁перечень	-14198
▁плавания	-14199
▁пожизнен	-14200
▁получены	-14201
▁практика	-14202
▁практики	-14203
▁различия	-14204
▁совмести	-14205
▁сценарий	-14206
▁телефона	-14207
▁точность	-14208
логических	-14209
▁Вальдемар	-14210
▁Рождество	-14211
▁Считается	-14212
▁Федерация	-14213
▁двигаться	-14214
▁издателей	-14215
▁коллектив	-14216
▁массового	-14217
▁небольших	-14218
▁опасности	-14219
▁осуществи	-14220
▁отделение	-14221
▁политикой	-14222
▁просмотра	-14223
▁чувствует	-14224
Медиабизнес	-14225
▁настроения	-14226
▁организмов	-14227
▁полученные	-14228
▁сокращение	-14229
▁состоялась	-14230
▁экспедиции	-14231
▁Конституцию	-14232
▁информацией	-14233
▁необходимое	-14234
▁опубликовал	-14235
▁отсутствуют	-14236
▁официальным	-14237
▁программное	-14238
▁прокомменти	-14239
▁рассказывал	-14240
▁религиозные	-14241
▁уверенность	-14242
▁пользователю	-14243
▁преимущество	-14244
▁преступников	-14245
▁сравнительно	-14246
▁невозможности	-14247
▁строительстве	-14248
▁информационной	-14249
▁Государственным	-14250
5&	-14251
rs	-14252
»_	-14253
ЧП	-14254
ив	-14255
юр	-14256
ank	-14257
ryj	-14258
vel	-14259
ven	-14260
бку	-14261
вам	-14262
лец	-14263
мжи	-14264
све	-14265
уда	-14266
хен	-14267
чам	-14268
ьют	-14269
ёте	-14270
▁At	-14271
▁Or	-14272
▁TV	-14273
▁Хэ	-14274
▁св	-14275
▁тр	-14276
dent	-14277
raft	-14278
ward	-14279
wlew	-14280
Моби	-14281
борь	-14282
веду	-14283
воли	-14284
гона	-14285
день	-14286
дило	-14287
ерых	-14288
жила	-14289
лана	-14290
лево	-14291
пала	-14292
пина	-14293
рины	-14294
роко	-14295
тека	-14296
тину	-14297
хими	-14298
▁15.	-14299
▁30-	-14300
▁Гам	-14301
▁Дэй	-14302
▁СНГ	-14303
▁Сот	-14304
▁Чет	-14305
▁ищу	-14306
▁кад	-14307
▁око	-14308
▁оха	-14309
▁соу	-14310
▁соч	-14311
▁хищ	-14312
▁хре	-14313
0%94%	-14314
Украи	-14315
блюда	-14316
давно	-14317
ждали	-14318
жнего	-14319
лагом	-14320
ликов	-14321
менее	-14322
опера	-14323
пиона	-14324
прово	-14325
ранже	-14326
реаги	-14327
слого	-14328
ссией	-14329
▁1941	-14330
▁Пала	-14331
▁Писа	-14332
▁Сеть	-14333
▁Твор	-14334
▁Чего	-14335
▁Этим	-14336
▁бара	-14337
▁вещь	-14338
▁взро	-14339
▁гроб	-14340
▁дока	-14341
▁домо	-14342
▁ждут	-14343
▁заим	-14344
▁идее	-14345
▁кали	-14346
▁лихо	-14347
▁лозу	-14348
▁мусо	-14349
▁очер	-14350
▁ребя	-14351
▁реке	-14352
▁снял	-14353
▁ство	-14354
kowlew	-14355
Москов	-14356
ализма	-14357
вающим	-14358
летние	-14359
лигиоз	-14360
лияние	-14361
льника	-14362
пление	-14363
скосмо	-14364
степен	-14365
▁Воору	-14366
▁Иначе	-14367
▁Киева	-14368
▁Общая	-14369
▁Париж	-14370
▁Плани	-14371
▁Проис	-14372
▁Самый	-14373
▁Собра	-14374
▁балла	-14375
▁важны	-14376
▁ввиду	-14377
▁вреда	-14378
▁вытес	-14379
▁гимна	-14380
▁жанра	-14381
▁краса	-14382
▁метра	-14383
▁недей	-14384
▁непол	-14385
▁нести	-14386
▁опаса	-14387
▁отцом	-14388
▁повод	-14389
▁пуска	-14390
▁разма	-14391
▁своев	-14392
▁собла	-14393
▁судьи	-14394
▁тесно	-14395
▁титул	-14396
▁ткани	-14397
▁уверя	-14398
▁ужаса	-14399
▁хлеба	-14400
▁ходит	-14401
▁хорош	-14402
▁черте	-14403
▁четко	-14404
▁этапа	-14405
▁эфире	-14406
лизация	-14407
нинград	-14408
▁Лондон	-14409
▁Проект	-14410
▁адреса	-14411
▁вторую	-14412
▁вызвал	-14413
▁грозит	-14414
▁дворец	-14415
▁доллар	-14416
▁криста	-14417
▁напада	-14418
▁охраня	-14419
▁оценка	-14420
▁пакета	-14421
▁письме	-14422
▁приема	-14423
▁семина	-14424
▁стояли	-14425
▁судить	-14426
▁теорий	-14427
▁транзи	-14428
▁умение	-14429
▁учение	-14430
▁форуме	-14431
▁христи	-14432
Интерфак	-14433
▁Красной	-14434
▁Лужкова	-14435
▁Поднебе	-14436
▁Порядок	-14437
▁Предста	-14438
▁Социаль	-14439
▁Топалов	-14440
▁близких	-14441
▁ведения	-14442
▁великая	-14443
▁вызвать	-14444
▁выплаты	-14445
▁выросли	-14446
▁вычисли	-14447
▁граница	-14448
▁давайте	-14449
▁детской	-14450
▁дешевле	-14451
▁дорогой	-14452
▁ежемеся	-14453
▁кинотеа	-14454
▁критика	-14455
▁местами	-14456
▁местным	-14457
▁обычным	-14458
▁отрасле	-14459
▁отреаги	-14460
▁паспорт	-14461
▁примеры	-14462
▁разного	-14463
▁спектра	-14464
▁станция	-14465
▁странам	-14466
▁студент	-14467
▁топливо	-14468
▁успехом	-14469
▁шахмати	-14470
▁широком	-14471
▁штрафов	-14472
секретарь	-14473
▁Мандалор	-14474
▁Монголии	-14475
▁Наверное	-14476
▁великого	-14477
▁водителя	-14478
▁выбирать	-14479
▁вызывают	-14480
▁выяснить	-14481
▁достаточ	-14482
▁законных	-14483
▁изобража	-14484
▁интересо	-14485
▁конкурсе	-14486
▁констати	-14487
▁критерии	-14488
▁миллионы	-14489
▁настроен	-14490
▁недоступ	-14491
▁неустано	-14492
▁обрабаты	-14493
▁общаться	-14494
▁объявлен	-14495
▁ожидания	-14496
▁открытых	-14497
▁поправки	-14498
▁привыкли	-14499
▁приступи	-14500
▁проверке	-14501
▁проектом	-14502
▁процвета	-14503
▁расчетов	-14504
▁телефону	-14505
▁уверенно	-14506
зированные	-14507
▁Подмосков	-14508
▁возможной	-14509
▁злоупотре	-14510
▁начальник	-14511
▁обращении	-14512
▁петербург	-14513
▁писателем	-14514
▁принимали	-14515
▁разговоры	-14516
▁разделить	-14517
▁режиссера	-14518
▁стараются	-14519
▁стремится	-14520
▁трудности	-14521
▁убеждения	-14522
▁усовершен	-14523
▁физически	-14524
▁церемонии	-14525
▁Российский	-14526
▁британской	-14527
▁обнаружены	-14528
▁обратились	-14529
▁определять	-14530
▁предложили	-14531
▁препаратов	-14532
▁приобрести	-14533
▁пролетариа	-14534
▁проприетар	-14535
▁публикаций	-14536
▁пятидесяти	-14537
▁сообщалось	-14538
▁террористи	-14539
▁технология	-14540
▁украинских	-14541
▁факультета	-14542
▁чемпионате	-14543
▁Определение	-14544
▁возвращения	-14545
▁компенсации	-14546
▁конкурентов	-14547
▁обозначение	-14548
▁образований	-14549
▁противореча	-14550
▁собственным	-14551
▁специальной	-14552
▁федеральной	-14553
▁европейского	-14554
▁литературных	-14555
▁определенные	-14556
▁положительно	-14557
▁противоречие	-14558
▁задолженности	-14559
▁предположение	-14560
▁родственников	-14561
▁свидетельства	-14562
▁удовлетворение	-14563
AN	-14564
Sc	-14565
df	-14566
ОЖ	-14567
РК	-14568
кы	-14569
лн	-14570
=35	-14571
cks	-14572
det	-14573
ite	-14574
lov	-14575
ola	-14576
Свя	-14577
бек	-14578
вее	-14579
вне	-14580
гон	-14581
дец	-14582
ера	-14583
ида	-14584
йдя	-14585
оба	-14586
хих	-14587
чин	-14588
эра	-14589
юзи	-14590
▁Жа	-14591
▁СИ	-14592
▁Ус	-14593
▁кв	-14594
orld	-14595
ussi	-14596
ГАТЭ	-14597
анти	-14598
вале	-14599
вика	-14600
гера	-14601
деры	-14602
дома	-14603
зеро	-14604
зной	-14605
лыша	-14606
семе	-14607
сеть	-14608
фали	-14609
фаль	-14610
хран	-14611
шись	-14612
шные	-14613
▁10,	-14614
▁Uni	-14615
▁Муж	-14616
▁Сар	-14617
▁ТНК	-14618
▁Яку	-14619
▁жёл	-14620
▁нег	-14621
▁тел	-14622
▁шля	-14623
glaya	-14624
Китай	-14625
Финан	-14626
балан	-14627
жутся	-14628
кович	-14629
листы	-14630
лками	-14631
мингу	-14632
нович	-14633
отече	-14634
пеней	-14635
рость	-14636
слову	-14637
стыми	-14638
стяза	-14639
тузиа	-14640
▁1940	-14641
▁Tele	-14642
▁Вита	-14643
▁Вяче	-14644
▁Иису	-14645
▁Ильи	-14646
▁Коло	-14647
▁Мани	-14648
▁Роль	-14649
▁Союз	-14650
▁Стан	-14651
▁Стар	-14652
▁Тимо	-14653
▁Цель	-14654
▁волю	-14655
▁джаз	-14656
▁зана	-14657
▁звон	-14658
▁имею	-14659
▁канц	-14660
▁леги	-14661
▁лиди	-14662
▁муже	-14663
▁нету	-14664
▁отре	-14665
▁сбро	-14666
▁ушли	-14667
▁фирм	-14668
▁черт	-14669
▁ябло	-14670
ryjaya	-14671
Яндекс	-14672
ваемый	-14673
верено	-14674
гражда	-14675
динами	-14676
женцев	-14677
заторы	-14678
начале	-14679
носной	-14680
смотра	-14681
тилось	-14682
▁Башла	-14683
▁Болга	-14684
▁Вулфа	-14685
▁Новые	-14686
▁Произ	-14687
▁Самая	-14688
▁Солов	-14689
▁Участ	-14690
▁бирже	-14691
▁весен	-14692
▁вовле	-14693
▁вступ	-14694
▁вызов	-14695
▁выкри	-14696
▁герцо	-14697
▁закуп	-14698
▁матче	-14699
▁накло	-14700
▁парка	-14701
▁патри	-14702
▁пьесы	-14703
▁серия	-14704
▁судья	-14705
▁уходя	-14706
naglaya	-14707
reative	-14708
Атланти	-14709
вленная	-14710
информа	-14711
ненного	-14712
нология	-14713
ровской	-14714
финансы	-14715
ходятся	-14716
▁АвтоВА	-14717
▁Вторая	-14718
▁Данные	-14719
▁Джонни	-14720
▁Конгре	-14721
▁Кремля	-14722
▁Матери	-14723
▁Настоя	-14724
▁Флорен	-14725
▁аккура	-14726
▁актами	-14727
▁вблизи	-14728
▁ветера	-14729
▁давали	-14730
▁деревь	-14731
▁книжки	-14732
▁комфор	-14733
▁мульти	-14734
▁носить	-14735
▁отдать	-14736
▁отсюда	-14737
▁подать	-14738
▁подвод	-14739
▁привез	-14740
▁прикры	-14741
▁самоан	-14742
▁самыми	-14743
▁сделан	-14744
▁сдержа	-14745
▁случая	-14746
▁ссылки	-14747
▁тюрьмы	-14748
видимому	-14749
новремен	-14750
▁Геракла	-14751
▁Действи	-14752
▁Демокра	-14753
▁Клинтон	-14754
▁Понятно	-14755
▁Португа	-14756
▁Серафим	-14757
▁адвокат	-14758
▁альянса	-14759
▁аппарат	-14760
▁ведется	-14761
▁видеоза	-14762
▁виноват	-14763
▁воздуха	-14764
▁исчерпы	-14765
▁культур	-14766
▁мирного	-14767
▁моменту	-14768
▁монголь	-14769
▁награды	-14770
▁надлежа	-14771
▁оставил	-14772
▁отнести	-14773
▁покупке	-14774
▁помнить	-14775
▁прошлое	-14776
▁смотрят	-14777
▁снизить	-14778
▁совести	-14779
▁уточнил	-14780
▁ядерное	-14781
Александр	-14782
▁Казалось	-14783
▁Николаев	-14784
▁активных	-14785
▁большому	-14786
▁взрослых	-14787
▁голосова	-14788
▁движений	-14789
▁дискурса	-14790
▁издатель	-14791
▁магазина	-14792
▁музыкант	-14793
▁начинать	-14794
▁нынешнем	-14795
▁областей	-14796
▁подсозна	-14797
▁попросту	-14798
▁публично	-14799
▁снижения	-14800
▁содержат	-14801
▁телевизо	-14802
▁хранение	-14803
▁эффектов	-14804
логические	-14805
▁Проверено	-14806
▁великолеп	-14807
▁временные	-14808
▁выступили	-14809
▁гостинице	-14810
▁заведений	-14811
▁известная	-14812
▁квалифици	-14813
▁контролем	-14814
▁магазинов	-14815
▁наименова	-14816
▁ожидается	-14817
▁оператора	-14818
▁половиной	-14819
▁просматри	-14820
▁собрались	-14821
▁составлял	-14822
▁сравнении	-14823
▁телеканал	-14824
▁управлять	-14825
▁Савонарола	-14826
▁библиотеке	-14827
▁заставляет	-14828
▁институтов	-14829
▁называемых	-14830
▁письменной	-14831
▁подготовка	-14832
▁предложить	-14833
▁применении	-14834
▁происходят	-14835
▁разработка	-14836
▁экстремист	-14837
▁добровольно	-14838
▁космический	-14839
▁мандалорцев	-14840
▁необходимой	-14841
▁неправильно	-14842
▁официальных	-14843
▁переговорах	-14844
▁технической	-14845
▁восстановить	-14846
▁единственной	-14847
▁используемых	-14848
▁осуществляют	-14849
▁превращается	-14850
▁рассчитывать	-14851
▁организациями	-14852
▁установленные	-14853
▁установленный	-14854
▁Великобритания	-14855
▁Соответственно	-14856
▁восстановление	-14857
▁постановлением	-14858
CO	-14859
SA	-14860
sa	-14861
Аф	-14862
Жи	-14863
ПЦ	-14864
дт	-14865
▁j	-14866
ail	-14867
any	-14868
cro	-14869
del	-14870
gaz	-14871
int	-14872
ond	-14873
Сан	-14874
гос	-14875
жут	-14876
зве	-14877
изо	-14878
ллы	-14879
люс	-14880
муд	-14881
нар	-14882
нон	-14883
рёл	-14884
сай	-14885
сие	-14886
хай	-14887
цзы	-14888
эля	-14889
▁Sa	-14890
▁Тя	-14891
▁Фё	-14892
!!!!	-14893
.07.	-14894
ited	-14895
naya	-14896
port	-14897
skij	-14898
vers	-14899
Авто	-14900
боро	-14901
вано	-14902
вьте	-14903
дным	-14904
зади	-14905
зина	-14906
лари	-14907
леты	-14908
логе	-14909
нусь	-14910
пинг	-14911
пион	-14912
реть	-14913
роса	-14914
сада	-14915
тихо	-14916
фина	-14917
цкая	-14918
—200	-14919
▁2,5	-14920
▁Ama	-14921
▁BBC	-14922
▁Bri	-14923
▁Био	-14924
▁Буш	-14925
▁Лар	-14926
▁Сай	-14927
▁Сен	-14928
▁Сью	-14929
▁Тек	-14930
▁гек	-14931
▁опи	-14932
▁роз	-14933
▁сон	-14934
▁сор	-14935
▁шар	-14936
1%88%	-14937
Война	-14938
Север	-14939
комму	-14940
кторе	-14941
лость	-14942
метье	-14943
прода	-14944
сказа	-14945
спери	-14946
тируя	-14947
цеден	-14948
щимся	-14949
▁1945	-14950
▁Арка	-14951
▁Арте	-14952
▁Брат	-14953
▁Гран	-14954
▁Доку	-14955
▁Поло	-14956
▁Рима	-14957
▁Саша	-14958
▁Сове	-14959
▁Упра	-14960
▁виза	-14961
▁выле	-14962
▁грип	-14963
▁груз	-14964
▁дабы	-14965
▁ждёт	-14966
▁каль	-14967
▁мост	-14968
▁обоз	-14969
▁папы	-14970
▁побу	-14971
▁помы	-14972
▁сбли	-14973
▁соле	-14974
▁укло	-14975
▁хомя	-14976
1%81_%	-14977
ватель	-14978
группы	-14979
мостью	-14980
нейший	-14981
ренный	-14982
точный	-14983
▁Ирина	-14984
▁Кузне	-14985
▁Магни	-14986
▁Марга	-14987
▁Михай	-14988
▁Наций	-14989
▁Ожида	-14990
▁Публи	-14991
▁Пусть	-14992
▁Свобо	-14993
▁Сразу	-14994
▁Фарер	-14995
▁акция	-14996
▁армию	-14997
▁атаки	-14998
▁башни	-14999
▁ваших	-15000
▁давал	-15001
▁изгна	-15002
▁измен	-15003
▁индий	-15004
▁интри	-15005
▁монта	-15006
▁нагре	-15007
▁налог	-15008
▁нерав	-15009
▁отцов	-15010
▁перес	-15011
▁повле	-15012
▁подра	-15013
▁предъ	-15014
▁принц	-15015
▁рекор	-15016
▁ретро	-15017
▁риско	-15018
▁собою	-15019
▁счету	-15020
▁усугу	-15021
▁фигур	-15022
▁фразы	-15023
видение	-15024
льского	-15025
работан	-15026
смотрим	-15027
тельнее	-15028
щенного	-15029
▁Канада	-15030
▁Ростов	-15031
▁Роттен	-15032
▁Харито	-15033
▁барина	-15034
▁бросил	-15035
▁важнее	-15036
▁важную	-15037
▁выдели	-15038
▁длиной	-15039
▁дороже	-15040
▁ежегод	-15041
▁жертво	-15042
▁каждые	-15043
▁ковчег	-15044
▁кратко	-15045
▁лошади	-15046
▁минера	-15047
▁набере	-15048
▁натура	-15049
▁непода	-15050
▁объеме	-15051
▁палаты	-15052
▁пирами	-15053
▁посыла	-15054
▁потока	-15055
▁правах	-15056
▁призыв	-15057
▁приказ	-15058
▁просла	-15059
▁растёт	-15060
▁родной	-15061
▁случаю	-15062
▁стихий	-15063
▁сыграл	-15064
▁тогдаш	-15065
▁узнали	-15066
▁улицах	-15067
▁умерла	-15068
[...]
